{
  "version": "1.0",
  "truncation": {
    "direction": "Right",
    "max_length": 160,
    "strategy": "LongestFirst",
    "stride": 0
  },
  "padding": {
    "strategy": {
      "Fixed": 160
    },
    "direction": "Right",
    "pad_to_multiple_of": null,
    "pad_id": 0,
    "pad_type_id": 0,
    "pad_token": "<|endoftext|>"
  },
  "added_tokens": [
    {
      "id": 0,
      "content": "<|endoftext|>",
      "single_word": false,
      "lstrip": false,
      "rstrip": false,
      "normalized": false,
      "special": true
    }
  ],
  "normalizer": null,
  "pre_tokenizer": {
    "type": "ByteLevel",
    "add_prefix_space": false,
    "trim_offsets": true,
    "use_regex": true
  },
  "post_processor": {
    "type": "ByteLevel",
    "add_prefix_space": true,
    "trim_offsets": false,
    "use_regex": true
  },
  "decoder": {
    "type": "ByteLevel",
    "add_prefix_space": true,
    "trim_offsets": true,
    "use_regex": true
  },
  "model": {
    "type": "BPE",
    "dropout": null,
    "unk_token": null,
    "continuing_subword_prefix": "",
    "end_of_word_suffix": "",
    "fuse_unk": false,
    "byte_fallback": false,
    "vocab": {
      "<|endoftext|>": 0,
      "!": 1,
      "\"": 2,
      "#": 3,
      "$": 4,
      "%": 5,
      "&": 6,
      "'": 7,
      "(": 8,
      ")": 9,
      "*": 10,
      "+": 11,
      ",": 12,
      "-": 13,
      ".": 14,
      "/": 15,
      "0": 16,
      "1": 17,
      "2": 18,
      "3": 19,
      "4": 20,
      "5": 21,
      "6": 22,
      "7": 23,
      "8": 24,
      "9": 25,
      ":": 26,
      ";": 27,
      "<": 28,
      "=": 29,
      ">": 30,
      "?": 31,
      "@": 32,
      "A": 33,
      "B": 34,
      "C": 35,
      "D": 36,
      "E": 37,
      "F": 38,
      "G": 39,
      "H": 40,
      "I": 41,
      "J": 42,
      "K": 43,
      "L": 44,
      "M": 45,
      "N": 46,
      "O": 47,
      "P": 48,
      "Q": 49,
      "R": 50,
      "S": 51,
      "T": 52,
      "U": 53,
      "V": 54,
      "W": 55,
      "X": 56,
      "Y": 57,
      "Z": 58,
      "[": 59,
      "\\": 60,
      "]": 61,
      "^": 62,
      "_": 63,
      "`": 64,
      "a": 65,
      "b": 66,
      "c": 67,
      "d": 68,
      "e": 69,
      "f": 70,
      "g": 71,
      "h": 72,
      "i": 73,
      "j": 74,
      "k": 75,
      "l": 76,
      "m": 77,
      "n": 78,
      "o": 79,
      "p": 80,
      "q": 81,
      "r": 82,
      "s": 83,
      "t": 84,
      "u": 85,
      "v": 86,
      "w": 87,
      "x": 88,
      "y": 89,
      "z": 90,
      "{": 91,
      "|": 92,
      "}": 93,
      "~": 94,
      "¡": 95,
      "¢": 96,
      "£": 97,
      "¤": 98,
      "¥": 99,
      "¦": 100,
      "§": 101,
      "¨": 102,
      "©": 103,
      "ª": 104,
      "«": 105,
      "¬": 106,
      "®": 107,
      "¯": 108,
      "°": 109,
      "±": 110,
      "²": 111,
      "³": 112,
      "´": 113,
      "µ": 114,
      "¶": 115,
      "·": 116,
      "¸": 117,
      "¹": 118,
      "º": 119,
      "»": 120,
      "¼": 121,
      "½": 122,
      "¾": 123,
      "¿": 124,
      "À": 125,
      "Á": 126,
      "Â": 127,
      "Ã": 128,
      "Ä": 129,
      "Å": 130,
      "Æ": 131,
      "Ç": 132,
      "È": 133,
      "É": 134,
      "Ê": 135,
      "Ë": 136,
      "Ì": 137,
      "Í": 138,
      "Î": 139,
      "Ï": 140,
      "Ð": 141,
      "Ñ": 142,
      "Ò": 143,
      "Ó": 144,
      "Ô": 145,
      "Õ": 146,
      "Ö": 147,
      "×": 148,
      "Ø": 149,
      "Ù": 150,
      "Ú": 151,
      "Û": 152,
      "Ü": 153,
      "Ý": 154,
      "Þ": 155,
      "ß": 156,
      "à": 157,
      "á": 158,
      "â": 159,
      "ã": 160,
      "ä": 161,
      "å": 162,
      "æ": 163,
      "ç": 164,
      "è": 165,
      "é": 166,
      "ê": 167,
      "ë": 168,
      "ì": 169,
      "í": 170,
      "î": 171,
      "ï": 172,
      "ð": 173,
      "ñ": 174,
      "ò": 175,
      "ó": 176,
      "ô": 177,
      "õ": 178,
      "ö": 179,
      "÷": 180,
      "ø": 181,
      "ù": 182,
      "ú": 183,
      "û": 184,
      "ü": 185,
      "ý": 186,
      "þ": 187,
      "ÿ": 188,
      "Ā": 189,
      "ā": 190,
      "Ă": 191,
      "ă": 192,
      "Ą": 193,
      "ą": 194,
      "Ć": 195,
      "ć": 196,
      "Ĉ": 197,
      "ĉ": 198,
      "Ċ": 199,
      "ċ": 200,
      "Č": 201,
      "č": 202,
      "Ď": 203,
      "ď": 204,
      "Đ": 205,
      "đ": 206,
      "Ē": 207,
      "ē": 208,
      "Ĕ": 209,
      "ĕ": 210,
      "Ė": 211,
      "ė": 212,
      "Ę": 213,
      "ę": 214,
      "Ě": 215,
      "ě": 216,
      "Ĝ": 217,
      "ĝ": 218,
      "Ğ": 219,
      "ğ": 220,
      "Ġ": 221,
      "ġ": 222,
      "Ģ": 223,
      "ģ": 224,
      "Ĥ": 225,
      "ĥ": 226,
      "Ħ": 227,
      "ħ": 228,
      "Ĩ": 229,
      "ĩ": 230,
      "Ī": 231,
      "ī": 232,
      "Ĭ": 233,
      "ĭ": 234,
      "Į": 235,
      "į": 236,
      "İ": 237,
      "ı": 238,
      "Ĳ": 239,
      "ĳ": 240,
      "Ĵ": 241,
      "ĵ": 242,
      "Ķ": 243,
      "ķ": 244,
      "ĸ": 245,
      "Ĺ": 246,
      "ĺ": 247,
      "Ļ": 248,
      "ļ": 249,
      "Ľ": 250,
      "ľ": 251,
      "Ŀ": 252,
      "ŀ": 253,
      "Ł": 254,
      "ł": 255,
      "Ń": 256,
      "de": 257,
      "Ġde": 258,
      "Ġe": 259,
      "Ġl": 260,
      "os": 261,
      "Ġc": 262,
      "Ġp": 263,
      "er": 264,
      "Ġa": 265,
      "on": 266,
      "en": 267,
      "ar": 268,
      "Ġs": 269,
      "es": 270,
      "as": 271,
      "an": 272,
      "ci": 273,
      "or": 274,
      "Ã³": 275,
      "Ġla": 276,
      "ad": 277,
      "Ġen": 278,
      "al": 279,
      "ue": 280,
      "in": 281,
      "un": 282,
      "re": 283,
      "Ġel": 284,
      "Ġm": 285,
      "te": 286,
      "Ġy": 287,
      "ti": 288,
      "tr": 289,
      "ÃŃ": 290,
      "ta": 291,
      "que": 292,
      "Ġes": 293,
      "Ã³n": 294,
      "Ġcon": 295,
      "om": 296,
      "di": 297,
      "Ġun": 298,
      "Ġf": 299,
      "to": 300,
      "Ġque": 301,
      "do": 302,
      "ic": 303,
      "Ã¡": 304,
      "is": 305,
      "Ġse": 306,
      "Ġh": 307,
      "Ġsu": 308,
      "Ġdel": 309,
      "ciÃ³n": 310,
      "ro": 311,
      "Ġlos": 312,
      "Ã©": 313,
      "Ġn": 314,
      "ĠC": 315,
      "ra": 316,
      "ĠE": 317,
      "ol": 318,
      "ri": 319,
      "Ġre": 320,
      "Ġv": 321,
      "Ġcom": 322,
      "am": 323,
      "Ġ1": 324,
      "ĠS": 325,
      "ado": 326,
      "tu": 327,
      "Ġin": 328,
      "le": 329,
      "Ġo": 330,
      "ĠA": 331,
      "Ġpar": 332,
      "Ġpor": 333,
      "la": 334,
      "ĠM": 335,
      "Ġal": 336,
      "ab": 337,
      "ente": 338,
      "ÃŃa": 339,
      "Ġg": 340,
      "ter": 341,
      "da": 342,
      "ĠP": 343,
      "Ġ\"": 344,
      "Ã±": 345,
      "res": 346,
      "Ġlas": 347,
      "ĠL": 348,
      "il": 349,
      "Ġdi": 350,
      "Ġuna": 351,
      "ien": 352,
      "Ġb": 353,
      "Ġd": 354,
      "cu": 355,
      "io": 356,
      "cion": 357,
      "Ġ(": 358,
      "mp": 359,
      "ig": 360,
      "dad": 361,
      "lo": 362,
      "ia": 363,
      "ec": 364,
      "us": 365,
      "ada": 366,
      "Ġ2": 367,
      "Ġpro": 368,
      "el": 369,
      "Ġdes": 370,
      "ran": 371,
      "Ġpara": 372,
      "ĠB": 373,
      "Ġtr": 374,
      "tor": 375,
      "Ġcomo": 376,
      "bi": 377,
      "Ġcu": 378,
      "tos": 379,
      "Ãº": 380,
      "ma": 381,
      "ĠR": 382,
      "ĠD": 383,
      "ĠT": 384,
      "cia": 385,
      "vi": 386,
      "ch": 387,
      "qu": 388,
      "ca": 389,
      "Ġt": 390,
      "tes": 391,
      "Ġ19": 392,
      "Ã¡s": 393,
      "Ġper": 394,
      "ica": 395,
      "iz": 396,
      "ĠG": 397,
      "ĠF": 398,
      "ales": 399,
      "co": 400,
      "bre": 401,
      "go": 402,
      "Ġ20": 403,
      "ando": 404,
      "Ġfue": 405,
      "pa": 406,
      "Ġno": 407,
      "ul": 408,
      "era": 409,
      "it": 410,
      "ĠI": 411,
      "Ġj": 412,
      "ados": 413,
      "den": 414,
      "mente": 415,
      "Ġex": 416,
      "ĠJ": 417,
      "uer": 418,
      "se": 419,
      "ciones": 420,
      "ĠN": 421,
      "Ġlo": 422,
      "im": 423,
      "ce": 424,
      "ten": 425,
      "ĠEs": 426,
      "ir": 427,
      "Ã¡n": 428,
      "iÃ³n": 429,
      "Ġan": 430,
      "ĠH": 431,
      "vo": 432,
      "tra": 433,
      "dos": 434,
      "ie": 435,
      "ĠmÃ¡s": 436,
      "aj": 437,
      "po": 438,
      "tro": 439,
      "ici": 440,
      "mo": 441,
      "tas": 442,
      "tre": 443,
      "Ġac": 444,
      "gu": 445,
      "ay": 446,
      "tar": 447,
      "Ã©n": 448,
      "pe": 449,
      "ĠEn": 450,
      "ib": 451,
      "Ġsus": 452,
      "aciÃ³n": 453,
      "Ã©s": 454,
      "um": 455,
      "Ġme": 456,
      "rim": 457,
      "ĠV": 458,
      "ero": 459,
      "idad": 460,
      "ur": 461,
      "ĠEl": 462,
      "iv": 463,
      "ĠaÃ±": 464,
      "Ġti": 465,
      "ico": 466,
      "ac": 467,
      "Ġser": 468,
      "Ġpo": 469,
      "ador": 470,
      "tal": 471,
      "ĠU": 472,
      "tan": 473,
      "Ġr": 474,
      "Ġcons": 475,
      "pu": 476,
      "Ġi": 477,
      "du": 478,
      "Ġesta": 479,
      "em": 480,
      "Ġar": 481,
      "Ġpr": 482,
      "Ġte": 483,
      "Ġca": 484,
      "des": 485,
      "ĠLa": 486,
      "par": 487,
      "tin": 488,
      "Ġso": 489,
      "Ġto": 490,
      "El": 491,
      "Ġmu": 492,
      "tam": 493,
      "der": 494,
      "Ġprim": 495,
      "ios": 496,
      "Ġas": 497,
      "Ġhab": 498,
      "ido": 499,
      "Ġle": 500,
      "Ġres": 501,
      "va": 502,
      "lan": 503,
      "ĠO": 504,
      "Ġdis": 505,
      "bl": 506,
      "En": 507,
      "ers": 508,
      "\",": 509,
      "Ġest": 510,
      "Ġha": 511,
      "00": 512,
      "ida": 513,
      "mb": 514,
      "za": 515,
      "Ġor": 516,
      "Ġentre": 517,
      "gun": 518,
      "aron": 519,
      "iento": 520,
      "ano": 521,
      "),": 522,
      "cl": 523,
      "ru": 524,
      "adas": 525,
      "ba": 526,
      "Ġfor": 527,
      "biÃ©n": 528,
      "ion": 529,
      "Ġob": 530,
      "Ġ201": 531,
      "Ġcar": 532,
      "ces": 533,
      "los": 534,
      "qui": 535,
      "tÃ³": 536,
      "na": 537,
      "amente": 538,
      "ug": 539,
      "almente": 540,
      "con": 541,
      "âĢ": 542,
      "per": 543,
      "las": 544,
      "ras": 545,
      "eg": 546,
      "Ġpa": 547,
      "ÃŃs": 548,
      "man": 549,
      "Ġsig": 550,
      "ez": 551,
      "La": 552,
      "paÃ±": 553,
      "Ġpres": 554,
      "Ġparti": 555,
      "ĠĊ": 556,
      "ĠUn": 557,
      "gen": 558,
      "ista": 559,
      "ÃŃn": 560,
      "les": 561,
      "eron": 562,
      "Ãºn": 563,
      "ina": 564,
      "Ġ200": 565,
      "ven": 566,
      "aliz": 567,
      "ĠAl": 568,
      "Ġinter": 569,
      "Ġcam": 570,
      "Ġimp": 571,
      "cip": 572,
      "je": 573,
      "ern": 574,
      "das": 575,
      "ior": 576,
      "tic": 577,
      "enta": 578,
      "rante": 579,
      "tambiÃ©n": 580,
      "ana": 581,
      "tros": 582,
      "Ġmo": 583,
      "Ġesc": 584,
      "Ġfin": 585,
      "ĠK": 586,
      "por": 587,
      "fer": 588,
      "pos": 589,
      "ĠW": 590,
      "Ġci": 591,
      "Ġcas": 592,
      "ĠtambiÃ©n": 593,
      "Ġpu": 594,
      "Ġlle": 595,
      "encia": 596,
      "tiv": 597,
      "tado": 598,
      "ĠIn": 599,
      ").": 600,
      "ismo": 601,
      "ara": 602,
      "Ġcan": 603,
      "cional": 604,
      "Ġson": 605,
      "jo": 606,
      "Ġna": 607,
      "oci": 608,
      "Ġfuer": 609,
      "urante": 610,
      "ĠaÃ±os": 611,
      "Ġpue": 612,
      "ino": 613,
      "Ġ18": 614,
      "Ġpre": 615,
      "Ġdos": 616,
      "tura": 617,
      "asta": 618,
      "cciÃ³n": 619,
      "Ġman": 620,
      "Ġpos": 621,
      "ton": 622,
      "Ġsobre": 623,
      "ĠSan": 624,
      "ens": 625,
      "onde": 626,
      "Ġmay": 627,
      "if": 628,
      "Ġab": 629,
      "\".": 630,
      "son": 631,
      "Ġmar": 632,
      "ble": 633,
      "tras": 634,
      "Ġpero": 635,
      "ga": 636,
      "Ġma": 637,
      "ÃŃan": 638,
      "Ġcol": 639,
      "ĠMar": 640,
      "til": 641,
      "Ġcor": 642,
      "Ġter": 643,
      "Ġeste": 644,
      "Ġmedi": 645,
      "ve": 646,
      "tica": 647,
      "ĠRe": 648,
      "Ġ3": 649,
      "tru": 650,
      "Ã©r": 651,
      "ĠCh": 652,
      "ĠÂ": 653,
      "fici": 654,
      "Ġsi": 655,
      "ĠSe": 656,
      "Ġhasta": 657,
      "ĠCon": 658,
      "Ġgran": 659,
      "Ġnue": 660,
      "Ġparte": 661,
      "ias": 662,
      "ento": 663,
      "Â»": 664,
      "aba": 665,
      "ener": 666,
      "mas": 667,
      "ub": 668,
      "Ġdonde": 669,
      "puÃ©s": 670,
      "Ġsol": 671,
      "eros": 672,
      "gr": 673,
      "for": 674,
      "ĠaÃ±o": 675,
      "Ġqu": 676,
      "min": 677,
      "Ġcre": 678,
      "ario": 679,
      "Ġreg": 680,
      "br": 681,
      "ĠÂ«": 682,
      "ene": 683,
      "lam": 684,
      "ona": 685,
      "ĠÃ©": 686,
      "udad": 687,
      "he": 688,
      "entes": 689,
      "Ġcomp": 690,
      "lar": 691,
      "incip": 692,
      "Ġemp": 693,
      "car": 694,
      "ĠAr": 695,
      "icos": 696,
      "Ġnom": 697,
      "Ġdesde": 698,
      "tur": 699,
      "Ġera": 700,
      "embre": 701,
      "ĠAn": 702,
      "me": 703,
      "Ġprincip": 704,
      "cio": 705,
      "ajo": 706,
      "gra": 707,
      "titu": 708,
      "ante": 709,
      "ores": 710,
      "iden": 711,
      "ing": 712,
      "unto": 713,
      "mi": 714,
      "Ġprodu": 715,
      "ĠÃ¡": 716,
      "Ġtra": 717,
      "Ġvar": 718,
      "Ġap": 719,
      "ech": 720,
      "Ġpas": 721,
      "iendo": 722,
      "Ġdurante": 723,
      "Ġau": 724,
      "Ġins": 725,
      "emp": 726,
      "cias": 727,
      "endo": 728,
      "ctor": 729,
      "ones": 730,
      "eo": 731,
      "tico": 732,
      "Ġestu": 733,
      "Ġperson": 734,
      "tados": 735,
      "Ġfun": 736,
      "tivo": 737,
      "gos": 738,
      "Ġsin": 739,
      "ans": 740,
      "Ġciudad": 741,
      "isiÃ³n": 742,
      "Ġpol": 743,
      "terior": 744,
      "ea": 745,
      "pres": 746,
      "Ġmun": 747,
      "dem": 748,
      "zo": 749,
      "cho": 750,
      "idos": 751,
      "ill": 752,
      "ĠSu": 753,
      "Ġcontra": 754,
      "men": 755,
      "ĠLos": 756,
      "Ġincl": 757,
      "cial": 758,
      "gan": 759,
      "ÃŃas": 760,
      "Ġprimer": 761,
      "argo": 762,
      "anz": 763,
      "Ġ199": 764,
      "ora": 765,
      "iÃ³": 766,
      "ciÃ³": 767,
      "Ã±o": 768,
      "ĠNa": 769,
      "endi": 770,
      "Ġtrab": 771,
      "ĠDe": 772,
      "iciÃ³n": 773,
      "Ġmayor": 774,
      "ĠdespuÃ©s": 775,
      "og": 776,
      "ĠhabÃŃa": 777,
      "ver": 778,
      "uel": 779,
      "Ġcual": 780,
      "laciÃ³n": 781,
      "Ġhi": 782,
      "Ġfueron": 783,
      "iones": 784,
      "uy": 785,
      "Ġforma": 786,
      "Ġya": 787,
      "Ġmen": 788,
      "ÃŃo": 789,
      "Âł": 790,
      "icas": 791,
      "Ġ4": 792,
      "cha": 793,
      "Ġprop": 794,
      "miento": 795,
      "Ġten": 796,
      "dr": 797,
      "Ġsal": 798,
      "uego": 799,
      "Ġespe": 800,
      "ugar": 801,
      "Ġus": 802,
      "ĠCar": 803,
      "ĠX": 804,
      "Ġcuando": 805,
      "adores": 806,
      "esti": 807,
      "Ġprimera": 808,
      "ĠâĢ": 809,
      "ito": 810,
      "ĠY": 811,
      "ber": 812,
      "th": 813,
      "Ġco": 814,
      "ĠestÃ¡": 815,
      "Ġemb": 816,
      "toria": 817,
      "ÃŃcu": 818,
      "Ġhis": 819,
      "ja": 820,
      "Ġpe": 821,
      "ros": 822,
      "Ġtemp": 823,
      "ĠCom": 824,
      "ivers": 825,
      "Ãºl": 826,
      "Ġcer": 827,
      "iste": 828,
      "pon": 829,
      "cal": 830,
      "no": 831,
      "19": 832,
      "Ġrealiz": 833,
      "arro": 834,
      "Ġllam": 835,
      "Ġoc": 836,
      "Ġ5": 837,
      "Ġtan": 838,
      "ide": 839,
      "tante": 840,
      "Ġotros": 841,
      "ris": 842,
      "anos": 843,
      "itar": 844,
      "antes": 845,
      "pec": 846,
      "cuen": 847,
      "Ġmismo": 848,
      "Ġad": 849,
      "Ġalgun": 850,
      "ĠMa": 851,
      "id": 852,
      "Ġtras": 853,
      "Ġgo": 854,
      "Ġgru": 855,
      "Ġu": 856,
      "cos": 857,
      "Ã©c": 858,
      "Ġestudi": 859,
      "Ãºlti": 860,
      "Ġactu": 861,
      "Ġequi": 862,
      "so": 863,
      "ĠRo": 864,
      "Ġgener": 865,
      "arse": 866,
      "Ġlugar": 867,
      "Ġreci": 868,
      "Ġtu": 869,
      "Ġden": 870,
      "ud": 871,
      "Ġcen": 872,
      "tiva": 873,
      "Ġro": 874,
      "and": 875,
      "ĠPar": 876,
      "Ġlleg": 877,
      "Ãºbl": 878,
      "et": 879,
      "Ġmon": 880,
      "Ġvez": 881,
      "Ġcal": 882,
      "ena": 883,
      "igu": 884,
      "Ġlib": 885,
      "ier": 886,
      "Ġconoci": 887,
      "Ġuno": 888,
      "Ġam": 889,
      "Ġplan": 890,
      "Ġsegun": 891,
      "ard": 892,
      "Ġdo": 893,
      "Ġcl": 894,
      "demÃ¡s": 895,
      "Ġ198": 896,
      "Ġapar": 897,
      "all": 898,
      "Ġsigu": 899,
      "erno": 900,
      "Ġfam": 901,
      "cer": 902,
      "Ġbas": 903,
      "ular": 904,
      "ren": 905,
      "Ã±a": 906,
      "unque": 907,
      "Ġencuen": 908,
      "Ġtres": 909,
      "Ġher": 910,
      "Ġtiemp": 911,
      "ge": 912,
      "Ġmuy": 913,
      "Ġform": 914,
      "ĠasÃŃ": 915,
      "ine": 916,
      "Ġescri": 917,
      "tis": 918,
      "Ġver": 919,
      "Ġedi": 920,
      "mos": 921,
      "ĠÃºlti": 922,
      "taciÃ³n": 923,
      "Ġ6": 924,
      "ĠFran": 925,
      "Ġcap": 926,
      "Ġdire": 927,
      "ĠpaÃŃs": 928,
      "Ġdeci": 929,
      "ala": 930,
      "tir": 931,
      "ril": 932,
      "Ġtrans": 933,
      "icaciÃ³n": 934,
      "Ġnombre": 935,
      "Ġimpor": 936,
      "arrol": 937,
      "Ġpuede": 938,
      "Ġconstru": 939,
      "Ãºs": 940,
      "istas": 941,
      "Ġtiene": 942,
      "Ġcab": 943,
      "Ġquien": 944,
      "omin": 945,
      "uerra": 946,
      "idades": 947,
      "uro": 948,
      "fec": 949,
      "Ġdeb": 950,
      "op": 951,
      "ed": 952,
      "cur": 953,
      "pues": 954,
      "ĠPa": 955,
      "eces": 956,
      "ientras": 957,
      "ich": 958,
      "cep": 959,
      "tiliz": 960,
      "Ġsido": 961,
      "Ġfu": 962,
      "ticas": 963,
      "ital": 964,
      "jer": 965,
      "Ġespeci": 966,
      "ĠÃ": 967,
      "Ġgra": 968,
      "Ġra": 969,
      "paÃ±a": 970,
      "ĠCa": 971,
      "Ġestado": 972,
      "diÃ³": 973,
      "dades": 974,
      "dia": 975,
      "Ġnor": 976,
      "lu": 977,
      "ĠpolÃŃ": 978,
      "Ġinv": 979,
      "Ġembargo": 980,
      "Ġ197": 981,
      "Ġdesarrol": 982,
      "Ġmil": 983,
      "tiÃ³": 984,
      "Ġpubl": 985,
      "ĠLe": 986,
      "gua": 987,
      "II": 988,
      "bierno": 989,
      "chos": 990,
      "Ġmis": 991,
      "vin": 992,
      "Ġtiempo": 993,
      "bido": 994,
      "aban": 995,
      "paÃ±ol": 996,
      "ĠAs": 997,
      "ĠZ": 998,
      "Ġsiglo": 999,
      "ban": 1000,
      "Ġpel": 1001,
      "Ġutiliz": 1002,
      "ial": 1003,
      "iente": 1004,
      "rig": 1005,
      "Ġsuper": 1006,
      "Ġeje": 1007,
      "cen": 1008,
      "bo": 1009,
      "ip": 1010,
      "Es": 1011,
      "Ġba": 1012,
      "Ġve": 1013,
      "Ġban": 1014,
      "cas": 1015,
      "Ġorig": 1016,
      "Ġvol": 1017,
      "Ġinf": 1018,
      "Ġdifer": 1019,
      "Ġ15": 1020,
      "illa": 1021,
      "Ġz": 1022,
      "uso": 1023,
      "Ġtodo": 1024,
      "Ġsen": 1025,
      "omo": 1026,
      "Ġtrabaj": 1027,
      "Ġdef": 1028,
      "Ġof": 1029,
      "cor": 1030,
      "ita": 1031,
      "Ġanti": 1032,
      "omb": 1033,
      "Ġhan": 1034,
      "Ġ7": 1035,
      "cil": 1036,
      "ura": 1037,
      "Ġcul": 1038,
      "biÃ³": 1039,
      "ĠLas": 1040,
      "Ġcomen": 1041,
      "Los": 1042,
      "Ġvi": 1043,
      "ĠPor": 1044,
      "Ġ17": 1045,
      "Ġexp": 1046,
      "cri": 1047,
      "amiento": 1048,
      "Ġcontr": 1049,
      "Ġpes": 1050,
      "atro": 1051,
      "Ġcomun": 1052,
      "ĠJu": 1053,
      "Ġllev": 1054,
      "tido": 1055,
      "ck": 1056,
      "Ġrepres": 1057,
      "Ġch": 1058,
      "tÃ¡n": 1059,
      "Ġgan": 1060,
      "Ġmej": 1061,
      "Ġdiv": 1062,
      "Ġcos": 1063,
      "tivos": 1064,
      "contr": 1065,
      "Ġgrupo": 1066,
      "vir": 1067,
      "ĠDes": 1068,
      "ustr": 1069,
      "Ġjunto": 1070,
      "ĠGu": 1071,
      "olu": 1072,
      "Ġ8": 1073,
      "Ġtempor": 1074,
      "Ġfamil": 1075,
      "Ġacu": 1076,
      "Ġda": 1077,
      "ĠnÃº": 1078,
      "Ã±os": 1079,
      "Ġprof": 1080,
      "ĠUnivers": 1081,
      "000": 1082,
      "bol": 1083,
      "Ġsolo": 1084,
      "cre": 1085,
      "ne": 1086,
      "tac": 1087,
      "oma": 1088,
      "Ġbajo": 1089,
      "Ġese": 1090,
      "Ġfr": 1091,
      "Ġ196": 1092,
      "icip": 1093,
      "fic": 1094,
      "ĠCo": 1095,
      "aje": 1096,
      "Ġencontr": 1097,
      "Ġinici": 1098,
      "Ġmin": 1099,
      "Ġequipo": 1100,
      "Ġhac": 1101,
      "Ġconf": 1102,
      "adre": 1103,
      "Ġcontin": 1104,
      "ĠCol": 1105,
      "entos": 1106,
      "Ġserie": 1107,
      "Ġli": 1108,
      "Ġpla": 1109,
      "cul": 1110,
      "ticos": 1111,
      "ĠMe": 1112,
      "ĠLu": 1113,
      "dio": 1114,
      "Ġtor": 1115,
      "Ġnuevo": 1116,
      "Ġcada": 1117,
      "Ġmientras": 1118,
      "ĠespaÃ±ol": 1119,
      "Ġelec": 1120,
      "Ġtanto": 1121,
      "Ġrev": 1122,
      "ientos": 1123,
      "Ġsiste": 1124,
      "able": 1125,
      "20": 1126,
      "ĠCor": 1127,
      "Ġven": 1128,
      "isten": 1129,
      "Ġtodos": 1130,
      "erv": 1131,
      "Ġtar": 1132,
      "Ġentr": 1133,
      "pi": 1134,
      "ganiz": 1135,
      "gres": 1136,
      "dose": 1137,
      "tina": 1138,
      "pti": 1139,
      "Ġinten": 1140,
      "cido": 1141,
      "ele": 1142,
      "tores": 1143,
      "cis": 1144,
      "ĠpelÃŃcu": 1145,
      "Ġsiendo": 1146,
      "idente": 1147,
      "Ġ16": 1148,
      "Ġaunque": 1149,
      "Ġlu": 1150,
      "Ġjun": 1151,
      "Ġmuer": 1152,
      "Ġfe": 1153,
      "tada": 1154,
      "Ġhacia": 1155,
      "ambiÃ©n": 1156,
      "Ġpues": 1157,
      "âĢĿ": 1158,
      "ĠÃ©l": 1159,
      "Ġvida": 1160,
      "uela": 1161,
      "Ġcr": 1162,
      "Ġotras": 1163,
      "Ġcomple": 1164,
      "yo": 1165,
      "ya": 1166,
      "Ġfinal": 1167,
      "iemb": 1168,
      "ĠEstados": 1169,
      "ĠCas": 1170,
      "pre": 1171,
      "Ġaf": 1172,
      "Ġantes": 1173,
      "tad": 1174,
      "Ġrela": 1175,
      "Ġ9": 1176,
      "arios": 1177,
      "Ã³m": 1178,
      "quier": 1179,
      "ĠSin": 1180,
      "Ġofici": 1181,
      "Ġgobierno": 1182,
      "Ġestaba": 1183,
      "Ġcomenz": 1184,
      "ima": 1185,
      "Ġsur": 1186,
      "jos": 1187,
      "cios": 1188,
      "Ġjug": 1189,
      "ap": 1190,
      "tonces": 1191,
      "ĠBar": 1192,
      "ord": 1193,
      "Ġ10": 1194,
      "ĠUnidos": 1195,
      "Ġpob": 1196,
      "ĠMon": 1197,
      "ĠnÃºm": 1198,
      "tel": 1199,
      "Ġ194": 1200,
      "mpl": 1201,
      "Ġfa": 1202,
      "ĠNacional": 1203,
      "Ġk": 1204,
      "Ġni": 1205,
      "teg": 1206,
      "riÃ³": 1207,
      "gar": 1208,
      "Ġresul": 1209,
      "yec": 1210,
      "lic": 1211,
      "Ġsub": 1212,
      "alle": 1213,
      "ĠCu": 1214,
      "Ġgeneral": 1215,
      "ĠJos": 1216,
      "ell": 1217,
      "ulio": 1218,
      "Ġvis": 1219,
      "Ġmiemb": 1220,
      "ĠdÃŃa": 1221,
      "ĠâĢľ": 1222,
      "Ġfran": 1223,
      "ĠJo": 1224,
      "ts": 1225,
      "Ã³g": 1226,
      "Ġincluy": 1227,
      "tamente": 1228,
      "torio": 1229,
      "alidad": 1230,
      "Ġprogra": 1231,
      "Ġvo": 1232,
      "izo": 1233,
      "ome": 1234,
      "zas": 1235,
      "Ġ-": 1236,
      "ĠEspaÃ±a": 1237,
      "ques": 1238,
      "Ġlanz": 1239,
      "be": 1240,
      "Ġindi": 1241,
      "ĠtÃŃ": 1242,
      "Ġgu": 1243,
      "Ġhech": 1244,
      "dor": 1245,
      "Ã³r": 1246,
      "Ġtuvo": 1247,
      "Ġmunicip": 1248,
      "Ġta": 1249,
      "eno": 1250,
      "Ġhistoria": 1251,
      "Ġsegu": 1252,
      "bum": 1253,
      "Ġpublic": 1254,
      "tando": 1255,
      "Ġestable": 1256,
      "can": 1257,
      "Ġ195": 1258,
      "Ġentonces": 1259,
      "Ġ193": 1260,
      "forma": 1261,
      "tÃ¡": 1262,
      "Ġale": 1263,
      "Ġvarios": 1264,
      "ĠAm": 1265,
      "Ġdici": 1266,
      "Ġapro": 1267,
      "ĠpÃºbl": 1268,
      "ĠCam": 1269,
      "Ã¡f": 1270,
      "ĠUniversidad": 1271,
      "ĠPro": 1272,
      "Ġorganiz": 1273,
      "Ġalgunos": 1274,
      "aria": 1275,
      "ula": 1276,
      "lbum": 1277,
      "ha": 1278,
      "Ġmus": 1279,
      "olog": 1280,
      "pera": 1281,
      "tran": 1282,
      "Ġ(\"": 1283,
      "Ġclas": 1284,
      "ible": 1285,
      "Ġrecon": 1286,
      "ĠestÃ¡n": 1287,
      "hi": 1288,
      "ific": 1289,
      "Ġtemporada": 1290,
      "Ġpeque": 1291,
      "tural": 1292,
      "tantes": 1293,
      "Ġdebido": 1294,
      "Ġis": 1295,
      "aciones": 1296,
      "Ġmes": 1297,
      "inas": 1298,
      "Ġnuev": 1299,
      "Ġpresen": 1300,
      "ĠÃ¡lbum": 1301,
      "ĠBo": 1302,
      "ang": 1303,
      "Ġtrav": 1304,
      "Ġbar": 1305,
      "Ġsitu": 1306,
      "ĠNo": 1307,
      "ĠnÃºmero": 1308,
      "Ġcuatro": 1309,
      "au": 1310,
      "Ġmejor": 1311,
      "ĠJuan": 1312,
      "cel": 1313,
      "Ġproyec": 1314,
      "Ġtrad": 1315,
      "Ġri": 1316,
      "Ġencuentra": 1317,
      "tubre": 1318,
      "Ġmayo": 1319,
      "Ġapo": 1320,
      "ĠTambiÃ©n": 1321,
      "ĠMan": 1322,
      "cado": 1323,
      "lor": 1324,
      "ĠMun": 1325,
      "ptiembre": 1326,
      "Ġmundo": 1327,
      "Ġpueden": 1328,
      "Ġbien": 1329,
      "Ġmom": 1330,
      "ece": 1331,
      "ĠtravÃ©s": 1332,
      "Ġhum": 1333,
      "ies": 1334,
      "ile": 1335,
      "Ġestos": 1336,
      "Ġ12": 1337,
      "Ġluego": 1338,
      "ĠQ": 1339,
      "rea": 1340,
      "Ġder": 1341,
      "che": 1342,
      "ĠademÃ¡s": 1343,
      "Ġobra": 1344,
      "Ġamb": 1345,
      "Ġoctubre": 1346,
      "ares": 1347,
      "Â».": 1348,
      "Ġseptiembre": 1349,
      "Ġotro": 1350,
      "Ġmujer": 1351,
      "Ġbu": 1352,
      "tino": 1353,
      "ĠmÃºs": 1354,
      "xim": 1355,
      "ĠÃºn": 1356,
      "Ġante": 1357,
      "Ġsistema": 1358,
      "Ġvers": 1359,
      "Ġhay": 1360,
      "Ġprovin": 1361,
      "tera": 1362,
      "Ġservi": 1363,
      "gÃºn": 1364,
      "tivi": 1365,
      "Ġesti": 1366,
      "ĠAle": 1367,
      "ilidad": 1368,
      "Ġjulio": 1369,
      "form": 1370,
      "ÃŃf": 1371,
      "Ġay": 1372,
      "Ġpoder": 1373,
      "ĠMÃ©": 1374,
      "ĠpelÃŃcula": 1375,
      "Ġeran": 1376,
      "Ġcin": 1377,
      "Ġjunio": 1378,
      "viÃ³": 1379,
      "arÃŃa": 1380,
      "Ġtom": 1381,
      "Ġorigin": 1382,
      "Ã¡c": 1383,
      "Ġejemp": 1384,
      "Ã©rci": 1385,
      "jÃ©rci": 1386,
      "teriormente": 1387,
      "Ġmarzo": 1388,
      "ientes": 1389,
      "Ġcontinu": 1390,
      "ceso": 1391,
      "gosto": 1392,
      "sa": 1393,
      "Ġdiciembre": 1394,
      "Ġobje": 1395,
      "ĠGo": 1396,
      "Ġprofes": 1397,
      "cionales": 1398,
      "dera": 1399,
      "tion": 1400,
      "ĠÃģ": 1401,
      "irm": 1402,
      "Ġpersonas": 1403,
      "Ġdirig": 1404,
      "Ġpartido": 1405,
      "ho": 1406,
      "ĠpoblaciÃ³n": 1407,
      "und": 1408,
      "oso": 1409,
      "Ġenero": 1410,
      "Ġellos": 1411,
      "Ġval": 1412,
      "Ġdere": 1413,
      "Ġtoda": 1414,
      "Ġconse": 1415,
      "Ġhizo": 1416,
      "Ġnovi": 1417,
      "Ġagosto": 1418,
      "Ġdej": 1419,
      "Ġtarde": 1420,
      "ĠEste": 1421,
      "Ġautor": 1422,
      "Ġconvir": 1423,
      "Ġtotal": 1424,
      "rera": 1425,
      "cÃ³": 1426,
      "Ġfamilia": 1427,
      "Ġprincipal": 1428,
      "Ġguerra": 1429,
      "Ġella": 1430,
      "ĠFue": 1431,
      "val": 1432,
      "ivel": 1433,
      "Ġabril": 1434,
      "Ġ14": 1435,
      "Las": 1436,
      "ĠLo": 1437,
      "ĠPer": 1438,
      "Ġqued": 1439,
      "erÃŃa": 1440,
      "Ġnoviembre": 1441,
      "Ġgol": 1442,
      "ĠMo": 1443,
      "Ġref": 1444,
      "Ġcuenta": 1445,
      "Ġtien": 1446,
      "vis": 1447,
      "chas": 1448,
      "Ġtrabajo": 1449,
      "tral": 1450,
      "eric": 1451,
      "Ġneces": 1452,
      "acter": 1453,
      "ues": 1454,
      "iga": 1455,
      "ĠTo": 1456,
      "pen": 1457,
      "ider": 1458,
      "ĠBa": 1459,
      "ian": 1460,
      "ves": 1461,
      "turas": 1462,
      "Ġempres": 1463,
      "inos": 1464,
      "cular": 1465,
      "ut": 1466,
      "Ġnorte": 1467,
      "Ġecon": 1468,
      "ong": 1469,
      "..": 1470,
      "erdo": 1471,
      "ex": 1472,
      "Ġpermi": 1473,
      "dida": 1474,
      "dial": 1475,
      "ĠOr": 1476,
      "Ġcomer": 1477,
      "ĠCan": 1478,
      "ĠJosÃ©": 1479,
      "fo": 1480,
      "Ġfil": 1481,
      "ĠÃ©po": 1482,
      "ĠGran": 1483,
      "Ġsegundo": 1484,
      "brero": 1485,
      "ĠlÃŃn": 1486,
      "lica": 1487,
      "ciden": 1488,
      "Ġne": 1489,
      "ik": 1490,
      "ĠEuro": 1491,
      "Ġhacer": 1492,
      "minis": 1493,
      "Ġnivel": 1494,
      "ira": 1495,
      "jÃ©rcito": 1496,
      "xico": 1497,
      "ĠtÃŃtu": 1498,
      "Ġlocal": 1499,
      "taron": 1500,
      "Ġpun": 1501,
      "Ġsim": 1502,
      "Ġsiguiente": 1503,
      "tales": 1504,
      "ĠSal": 1505,
      "Ġzona": 1506,
      "Ġpartir": 1507,
      "ĠcompaÃ±": 1508,
      "Ġobs": 1509,
      "18": 1510,
      "Ã³lo": 1511,
      "Ġorden": 1512,
      "terna": 1513,
      "Al": 1514,
      "Ġ13": 1515,
      "Ġmomento": 1516,
      "Ġhom": 1517,
      "ĠNue": 1518,
      "iso": 1519,
      "nos": 1520,
      "ĠEsta": 1521,
      "ologÃŃa": 1522,
      "cimiento": 1523,
      "ĠIs": 1524,
      "ire": 1525,
      "van": 1526,
      "lesia": 1527,
      "Ġpop": 1528,
      "bier": 1529,
      "ĠtenÃŃa": 1530,
      "Ã©rica": 1531,
      "Ġbanda": 1532,
      "olÃ³g": 1533,
      "ibu": 1534,
      "Ġsegunda": 1535,
      "blo": 1536,
      "rid": 1537,
      "Ġinvesti": 1538,
      "este": 1539,
      "ef": 1540,
      "Ġterri": 1541,
      "Ġdistin": 1542,
      "Ġles": 1543,
      "com": 1544,
      "ciales": 1545,
      "Ġmilitar": 1546,
      "Ġmuerte": 1547,
      "ĠÃ©poca": 1548,
      "Ġnacional": 1549,
      "dencia": 1550,
      "eta": 1551,
      "jas": 1552,
      "Ġdivers": 1553,
      "Ġmuchos": 1554,
      "tivas": 1555,
      "Ġocu": 1556,
      "uda": 1557,
      "Ġdise": 1558,
      "Ġsie": 1559,
      "Ġdentro": 1560,
      "Ġneg": 1561,
      "Ġtermin": 1562,
      "Ġfebrero": 1563,
      "ĠMÃ©xico": 1564,
      "osa": 1565,
      "iano": 1566,
      "ĠseÃ±": 1567,
      "truc": 1568,
      "tuvo": 1569,
      "abor": 1570,
      "Ġgrandes": 1571,
      "Ġhaber": 1572,
      "ĠMad": 1573,
      "Ġmill": 1574,
      "idas": 1575,
      "Ġ11": 1576,
      "Ġlogr": 1577,
      "Ġconsider": 1578,
      "Ġcaracter": 1579,
      "Ġmedio": 1580,
      "Ġnueva": 1581,
      "Ġind": 1582,
      "tec": 1583,
      "stitu": 1584,
      "Ġlargo": 1585,
      "Ġvarias": 1586,
      "Ġotra": 1587,
      "Ġtele": 1588,
      "Ġrey": 1589,
      "Ġpoco": 1590,
      "Ġpri": 1591,
      "ĠPe": 1592,
      "gon": 1593,
      "Ġpresidente": 1594,
      "Ġcaus": 1595,
      "itu": 1596,
      "orn": 1597,
      "Ġcapa": 1598,
      "ĠNor": 1599,
      "ĠCen": 1600,
      "Se": 1601,
      "tamiento": 1602,
      "ĠlÃŃ": 1603,
      "ĠdÃ©c": 1604,
      "Ġefec": 1605,
      "Ġrom": 1606,
      "ĠmayorÃŃa": 1607,
      "bio": 1608,
      "itos": 1609,
      "Ġunos": 1610,
      "Ġmisma": 1611,
      "quel": 1612,
      "ĠRa": 1613,
      "Ġho": 1614,
      "Ġcontrol": 1615,
      "Ġprograma": 1616,
      "var": 1617,
      "Ġmenos": 1618,
      "tancia": 1619,
      "eci": 1620,
      "Ġmanera": 1621,
      "Ġmer": 1622,
      "Ġhace": 1623,
      "ĠrÃŃo": 1624,
      "Ġdecl": 1625,
      "dÃŃa": 1626,
      "ĠBu": 1627,
      "ĠSa": 1628,
      "Ġinterna": 1629,
      "Des": 1630,
      "ign": 1631,
      "pel": 1632,
      "Ġhecho": 1633,
      "Ã³s": 1634,
      "bra": 1635,
      "Ġpie": 1636,
      "Ġimportante": 1637,
      "Ġcentro": 1638,
      "edad": 1639,
      "ical": 1640,
      "Ã¡m": 1641,
      "Ġtipo": 1642,
      "Ġderro": 1643,
      "ĠSo": 1644,
      "Ġobras": 1645,
      "orÃŃa": 1646,
      "Ġpartici": 1647,
      "reg": 1648,
      "Ġdistr": 1649,
      "pol": 1650,
      "lÃŃ": 1651,
      "cÃŃa": 1652,
      "iel": 1653,
      "Ġinterpre": 1654,
      "posiciÃ³n": 1655,
      "Ġub": 1656,
      "col": 1657,
      "Ġrad": 1658,
      "Ġdiferentes": 1659,
      "rado": 1660,
      "Ġpal": 1661,
      "ĠcomenzÃ³": 1662,
      "tÃŃn": 1663,
      "cidad": 1664,
      "Ġactivi": 1665,
      "Ġpin": 1666,
      "The": 1667,
      "tbol": 1668,
      "Ġregres": 1669,
      "ĠPo": 1670,
      "dido": 1671,
      "Ġide": 1672,
      "ĠÃºltimo": 1673,
      "Ġcaso": 1674,
      "Ġrel": 1675,
      "Ġcasa": 1676,
      "mon": 1677,
      "erg": 1678,
      "ĠmÃ¡": 1679,
      "ĠÃ©x": 1680,
      "tener": 1681,
      "Ġtal": 1682,
      "ama": 1683,
      "Ġesto": 1684,
      "ional": 1685,
      "Ġejemplo": 1686,
      "ĠcanciÃ³n": 1687,
      "Ġmater": 1688,
      "bern": 1689,
      "eza": 1690,
      "fÃŃa": 1691,
      "ĠdÃŃas": 1692,
      "ĠVal": 1693,
      "Ã¼": 1694,
      "ĠPara": 1695,
      "Ġpadre": 1696,
      "ĠGuerra": 1697,
      "mana": 1698,
      "Â»,": 1699,
      "Ġfund": 1700,
      "zar": 1701,
      "Ġvic": 1702,
      "tÃ³r": 1703,
      "Ġ192": 1704,
      "Ġpopular": 1705,
      "ĠhabÃŃan": 1706,
      "ĠmÃºsica": 1707,
      "Ġprimeros": 1708,
      "Ġestas": 1709,
      "visiÃ³n": 1710,
      "vil": 1711,
      "Ġanterior": 1712,
      "Ġing": 1713,
      "Ġmillones": 1714,
      "Ġantigu": 1715,
      "talla": 1716,
      "Ġhijo": 1717,
      "Ġconocido": 1718,
      "Ġcele": 1719,
      "rio": 1720,
      "Ãºblica": 1721,
      "Ġart": 1722,
      "grÃ¡f": 1723,
      "Ġhor": 1724,
      "gentina": 1725,
      "Ã¡l": 1726,
      "Ġampl": 1727,
      "Ġclub": 1728,
      "posi": 1729,
      "ĠThe": 1730,
      "Ã¡ndose": 1731,
      "ĠSanta": 1732,
      "Ġrepresen": 1733,
      "ĠsegÃºn": 1734,
      "fa": 1735,
      "Ġvia": 1736,
      "siÃ³n": 1737,
      "ry": 1738,
      "dis": 1739,
      "ĠNe": 1740,
      "Ġtier": 1741,
      "Ġexper": 1742,
      "Ġespec": 1743,
      "Ġcuer": 1744,
      "ensa": 1745,
      "ĠCal": 1746,
      "hn": 1747,
      "Ġ,": 1748,
      "Ġsign": 1749,
      "Ġtodas": 1750,
      "Ġdestac": 1751,
      "Ã©cn": 1752,
      "ĠcrÃŃ": 1753,
      "Ġedifici": 1754,
      "Ġperio": 1755,
      "ist": 1756,
      "Ġconside": 1757,
      "Ġuso": 1758,
      "Ġparticip": 1759,
      "pendi": 1760,
      "tidad": 1761,
      "Ġpesar": 1762,
      "Ġalgunas": 1763,
      "ĠMarÃŃa": 1764,
      "ka": 1765,
      "Ġcien": 1766,
      "Ġcarrera": 1767,
      "ke": 1768,
      "ĠmÃ©": 1769,
      "ron": 1770,
      "ĠCl": 1771,
      "Ġley": 1772,
      "Ġigu": 1773,
      "Ġllamado": 1774,
      "una": 1775,
      "Ġtienen": 1776,
      "ĠproducciÃ³n": 1777,
      "ĠtÃŃtulo": 1778,
      "Ġgen": 1779,
      "terio": 1780,
      "ĠEstado": 1781,
      "Ġfrente": 1782,
      "Ġjuego": 1783,
      "caciÃ³n": 1784,
      "uniden": 1785,
      "taba": 1786,
      "ĠregiÃ³n": 1787,
      "Ġcris": 1788,
      "ieron": 1789,
      "vieron": 1790,
      "\")": 1791,
      "Ġag": 1792,
      "ual": 1793,
      "ĠtÃ©r": 1794,
      "Ġcuar": 1795,
      "vor": 1796,
      "Ġdesarrollo": 1797,
      "Ġdescri": 1798,
      "Ġcomien": 1799,
      "Ġaquel": 1800,
      "tom": 1801,
      "ĠFe": 1802,
      "Ġcuales": 1803,
      "eras": 1804,
      "canz": 1805,
      "Ġnombr": 1806,
      "Ġproble": 1807,
      "Ġanun": 1808,
      "Ġdirector": 1809,
      "Ġmovi": 1810,
      "enos": 1811,
      "Ġviv": 1812,
      "Ġdirec": 1813,
      "ental": 1814,
      "Ġinde": 1815,
      "Ġpunto": 1816,
      "Ġprovincia": 1817,
      "Ġcono": 1818,
      "Ġ25": 1819,
      "ĠpolÃŃtica": 1820,
      "ĠHa": 1821,
      "ĠHo": 1822,
      "ĠDa": 1823,
      "Ġconj": 1824,
      "gas": 1825,
      "gel": 1826,
      "tÃ³n": 1827,
      "uerto": 1828,
      "ajes": 1829,
      "tivamente": 1830,
      "Ġsa": 1831,
      "Ġbo": 1832,
      "Ġenf": 1833,
      "ric": 1834,
      "Ġcier": 1835,
      "ĠconvirtiÃ³": 1836,
      "Ġata": 1837,
      "ĠNueva": 1838,
      "ivil": 1839,
      "Ġdescu": 1840,
      "Ġcir": 1841,
      "mÃ¡": 1842,
      "Ġep": 1843,
      "imon": 1844,
      "ĠsÃŃ": 1845,
      "Ã±as": 1846,
      "via": 1847,
      "Ġdedi": 1848,
      "Ġinte": 1849,
      "Ġsue": 1850,
      "Ġliber": 1851,
      "Ġ30": 1852,
      "eb": 1853,
      "ĠlÃŃnea": 1854,
      "Ġmiembros": 1855,
      "Ġcargo": 1856,
      "ĠAdemÃ¡s": 1857,
      "Ġveces": 1858,
      "Con": 1859,
      "ĠversiÃ³n": 1860,
      "Ġinclu": 1861,
      "Ġagua": 1862,
      "Ġalcanz": 1863,
      "Ġ2010": 1864,
      "paciÃ³n": 1865,
      "Ġdefin": 1866,
      "Ġespa": 1867,
      "Ġconstitu": 1868,
      "ĠconstrucciÃ³n": 1869,
      "Ġcinco": 1870,
      "igo": 1871,
      "Ġbaj": 1872,
      "puesta": 1873,
      "Ġesa": 1874,
      "Ġrecu": 1875,
      "Ġdisco": 1876,
      "Ġestadouniden": 1877,
      "Ġases": 1878,
      "ruz": 1879,
      "Ġdio": 1880,
      "ilo": 1881,
      "ilar": 1882,
      "Ġpueblo": 1883,
      "tario": 1884,
      "Ġcasi": 1885,
      "Ġfal": 1886,
      "ĠEx": 1887,
      "encias": 1888,
      "peona": 1889,
      "Ġbus": 1890,
      "Ġgrab": 1891,
      "ĠdÃ©cada": 1892,
      "erro": 1893,
      "entaciÃ³n": 1894,
      "pro": 1895,
      "adora": 1896,
      "pÃºblica": 1897,
      "ritÃ¡n": 1898,
      "ĠMus": 1899,
      "ond": 1900,
      "ĠCarlos": 1901,
      "Ġleg": 1902,
      "ork": 1903,
      "Ġpapel": 1904,
      "ĠSh": 1905,
      "Ġexten": 1906,
      "Ġinvestig": 1907,
      "cin": 1908,
      "Ġtener": 1909,
      "Ġah": 1910,
      "ĠÃ©xito": 1911,
      "Ġeleg": 1912,
      "lado": 1913,
      "dal": 1914,
      "Ġ2011": 1915,
      "az": 1916,
      "Ġmas": 1917,
      "Ġestudios": 1918,
      "rede": 1919,
      "ĠeconÃ³m": 1920,
      "Ġproduc": 1921,
      "ĠMadrid": 1922,
      "Ġunivers": 1923,
      "onia": 1924,
      "ĠMin": 1925,
      "Ġmode": 1926,
      "Ġfinales": 1927,
      "tt": 1928,
      "ix": 1929,
      "Ġevi": 1930,
      "itantes": 1931,
      "Ġperten": 1932,
      "Ġcambi": 1933,
      "icamente": 1934,
      "Âº": 1935,
      "Ġperman": 1936,
      "Ġdesa": 1937,
      "mar": 1938,
      "Ġprincipales": 1939,
      "oluciÃ³n": 1940,
      "Ġbase": 1941,
      "Ġju": 1942,
      "Ġir": 1943,
      "ĠLuis": 1944,
      "Ġdenomin": 1945,
      "zos": 1946,
      "ĠXV": 1947,
      "Ġreconoci": 1948,
      "ĠFrancia": 1949,
      "ĠGar": 1950,
      "Ġestr": 1951,
      "Ġacuerdo": 1952,
      "ase": 1953,
      "Ġdeclar": 1954,
      "Ġlado": 1955,
      "Ġrespec": 1956,
      "Ġproyecto": 1957,
      "Ġmunicipio": 1958,
      "ĠFrancis": 1959,
      "Ġfuera": 1960,
      "Ġsocial": 1961,
      "Ġ191": 1962,
      "istencia": 1963,
      "ĠllegÃ³": 1964,
      "ĠMor": 1965,
      "mio": 1966,
      "ono": 1967,
      "ĠII": 1968,
      "Ãºtbol": 1969,
      "Ġrefer": 1970,
      "Ġcompar": 1971,
      "mientos": 1972,
      "adamente": 1973,
      "mÃ¡n": 1974,
      "Ġloc": 1975,
      "Ġnum": 1976,
      "ĠPre": 1977,
      "Ġmediante": 1978,
      "ĠpaÃŃses": 1979,
      "ifica": 1980,
      "Ġpuesto": 1981,
      "Ġcapital": 1982,
      "De": 1983,
      "ĠPla": 1984,
      "Ġencar": 1985,
      "Ġ2012": 1986,
      "ph": 1987,
      "gue": 1988,
      "eciÃ³": 1989,
      "Su": 1990,
      "Ġthe": 1991,
      "Ġmor": 1992,
      "Ġcerca": 1993,
      "ombres": 1994,
      "lec": 1995,
      "Ġporque": 1996,
      "ĠtÃ©cn": 1997,
      "ĠDurante": 1998,
      "ĠGener": 1999,
      "rag": 2000,
      "ĠJa": 2001,
      "usti": 2002,
      "Ġva": 2003,
      "Ġocas": 2004,
      "Ġig": 2005,
      "ĠPol": 2006,
      "Ġrelig": 2007,
      "Ġ2009": 2008,
      "Ã¡r": 2009,
      "bir": 2010,
      "ĠMundial": 2011,
      "ĠEuropa": 2012,
      "Ġem": 2013,
      "ler": 2014,
      "Ã©l": 2015,
      "Ġ2008": 2016,
      "imo": 2017,
      "Ġ.": 2018,
      "ki": 2019,
      "Ġestudio": 2020,
      "Ġsuf": 2021,
      "Ġtitu": 2022,
      "laz": 2023,
      "ministra": 2024,
      "Ġgobern": 2025,
      "Ġdomin": 2026,
      "od": 2027,
      "ĠArgentina": 2028,
      "rad": 2029,
      "imen": 2030,
      "Ã¡p": 2031,
      "Ġreal": 2032,
      "Ġ\"\"": 2033,
      "Ġesp": 2034,
      "Ġpodr": 2035,
      "Ġmues": 2036,
      "Ġvuel": 2037,
      "tiene": 2038,
      "Ġ2007": 2039,
      "iar": 2040,
      "formaciÃ³n": 2041,
      "Ġcompe": 2042,
      "Ġsino": 2043,
      "Ġlen": 2044,
      "umen": 2045,
      "Ġ2013": 2046,
      "Ġnatural": 2047,
      "icia": 2048,
      "mpre": 2049,
      "tia": 2050,
      "istro": 2051,
      "Ġ2015": 2052,
      "Ġproceso": 2053,
      "Ġanim": 2054,
      "Ġofre": 2055,
      "Ġlibro": 2056,
      "Ġconver": 2057,
      "Ġpropie": 2058,
      "Ġjue": 2059,
      "ff": 2060,
      "Ġigual": 2061,
      "Ġet": 2062,
      "iva": 2063,
      "tio": 2064,
      "Ġblan": 2065,
      "Ġconsidera": 2066,
      "quitec": 2067,
      "Ġmujeres": 2068,
      "ĠQu": 2069,
      "Ġmoder": 2070,
      "bur": 2071,
      "bas": 2072,
      "Ġatra": 2073,
      "Ġubic": 2074,
      "pas": 2075,
      "Ġaband": 2076,
      "Ġfech": 2077,
      "Ġ2014": 2078,
      "ĠAnton": 2079,
      "Ġincluso": 2080,
      "Ġmucho": 2081,
      "Ġartis": 2082,
      "Ġestilo": 2083,
      "mor": 2084,
      "puesto": 2085,
      "ĠRepÃºblica": 2086,
      "Ġop": 2087,
      "anas": 2088,
      "Ġalrede": 2089,
      "ĠSoci": 2090,
      "Ġorigen": 2091,
      "Ġinflu": 2092,
      "vers": 2093,
      "Ġemple": 2094,
      "Ġur": 2095,
      "ĠrelaciÃ³n": 2096,
      "Ġcompr": 2097,
      "Ġestruc": 2098,
      "Ġhombres": 2099,
      "Ġpuntos": 2100,
      "iales": 2101,
      "Ġestre": 2102,
      "aran": 2103,
      "ĠâĢĶ": 2104,
      "Ġexpres": 2105,
      "cir": 2106,
      "Ġdif": 2107,
      "Ġcolor": 2108,
      "Ġpartidos": 2109,
      "enas": 2110,
      "eraciÃ³n": 2111,
      "egÃºn": 2112,
      "ciendo": 2113,
      "Ġinstal": 2114,
      "bor": 2115,
      "ila": 2116,
      "ĠbritÃ¡n": 2117,
      "anza": 2118,
      "rez": 2119,
      "partam": 2120,
      "Ġmal": 2121,
      "Ġinstitu": 2122,
      "bles": 2123,
      "ĠFern": 2124,
      "ĠFrancisco": 2125,
      "bu": 2126,
      "tl": 2127,
      "Ġambos": 2128,
      "Ġfavor": 2129,
      "trimon": 2130,
      "lad": 2131,
      "tero": 2132,
      "ĠejÃ©rcito": 2133,
      "200": 2134,
      "Ġsan": 2135,
      "Ġmeses": 2136,
      "ĠsÃ³lo": 2137,
      "cle": 2138,
      "Ġgrupos": 2139,
      "ardo": 2140,
      "Ġcambio": 2141,
      "ĠrecibiÃ³": 2142,
      "Ġindustr": 2143,
      "ĠpÃºblico": 2144,
      "Ġ[": 2145,
      "gn": 2146,
      "Ġactual": 2147,
      "Ġpan": 2148,
      "Ġsab": 2149,
      "Ġelem": 2150,
      "Ġreun": 2151,
      "ko": 2152,
      "ĠJohn": 2153,
      "Ġoficial": 2154,
      "edro": 2155,
      "iana": 2156,
      "Ġimportantes": 2157,
      "Ġru": 2158,
      "Ġedu": 2159,
      "Ġ24": 2160,
      "ĠserÃŃa": 2161,
      "ĠPrim": 2162,
      "ÃŃos": 2163,
      "entemente": 2164,
      "Ġtrop": 2165,
      "Ġdocu": 2166,
      "ĠDespuÃ©s": 2167,
      "one": 2168,
      "ĠIg": 2169,
      "ĠSer": 2170,
      "Ġestar": 2171,
      "ĠTh": 2172,
      "ĠTor": 2173,
      "illo": 2174,
      "ĠÃºltima": 2175,
      "Ġ2006": 2176,
      "tadas": 2177,
      "udo": 2178,
      "peonato": 2179,
      "Ġfo": 2180,
      "10": 2181,
      "ĠhistÃ³r": 2182,
      "Ġnumeros": 2183,
      "Ġ190": 2184,
      "ĠChile": 2185,
      "Ġedad": 2186,
      "ĠHer": 2187,
      "ick": 2188,
      "trÃ³": 2189,
      "Ġredu": 2190,
      "âĢĶ": 2191,
      "bar": 2192,
      "Ġtur": 2193,
      "inado": 2194,
      "ĠMu": 2195,
      "Ġfinalmente": 2196,
      "Ġsiempre": 2197,
      "Ġposible": 2198,
      "ĠDo": 2199,
      "Ġmiembro": 2200,
      "Ġpropio": 2201,
      "Ġterritorio": 2202,
      "ll": 2203,
      "nas": 2204,
      "Ġprincipios": 2205,
      "Ġsencil": 2206,
      "termin": 2207,
      "tagon": 2208,
      "Ġopera": 2209,
      "Ġestaban": 2210,
      "eas": 2211,
      "Ġcondi": 2212,
      "cuencia": 2213,
      "porte": 2214,
      "Ġcondu": 2215,
      "Ġiden": 2216,
      "ev": 2217,
      "Ġcabo": 2218,
      "izaciÃ³n": 2219,
      "Ġdebe": 2220,
      "vela": 2221,
      "sos": 2222,
      "ivo": 2223,
      "erva": 2224,
      "Ġsepar": 2225,
      "ĠgÃ©n": 2226,
      "Ġpose": 2227,
      "ĠGeneral": 2228,
      "Ġmuchas": 2229,
      "Ġtradi": 2230,
      "Ġobl": 2231,
      "ĠcaracterÃŃs": 2232,
      "ĠÃ¡rea": 2233,
      "cendi": 2234,
      "Ġcur": 2235,
      "greso": 2236,
      "Ġsuperior": 2237,
      "Ġestuvo": 2238,
      "Ġcomba": 2239,
      "Ġinvi": 2240,
      "ĠTer": 2241,
      "Ġconven": 2242,
      "Ġconserv": 2243,
      "gado": 2244,
      "Ġespecial": 2245,
      "Ġenfren": 2246,
      "ires": 2247,
      "Ġdispu": 2248,
      "ĠtelevisiÃ³n": 2249,
      "Ġrespon": 2250,
      "ale": 2251,
      "Ġdu": 2252,
      "Ġmos": 2253,
      "pl": 2254,
      "ria": 2255,
      "onas": 2256,
      "ĠYork": 2257,
      "tiz": 2258,
      "ĠUna": 2259,
      "Ġservicio": 2260,
      "ola": 2261,
      "ĠCi": 2262,
      "Ġllamada": 2263,
      "ger": 2264,
      "ĠposiciÃ³n": 2265,
      "ĠPres": 2266,
      "Ġhabitantes": 2267,
      "Ġsex": 2268,
      "Ġfre": 2269,
      "Ġencuentran": 2270,
      "omÃŃa": 2271,
      "Ġ2016": 2272,
      "Ġsiguientes": 2273,
      "dios": 2274,
      "Ġarquitec": 2275,
      "Ġacep": 2276,
      "igh": 2277,
      "Ġescu": 2278,
      "enso": 2279,
      "Ġello": 2280,
      "ĠaÃºn": 2281,
      "lÃ©s": 2282,
      "Ġcuerpo": 2283,
      "ĠcÃ³": 2284,
      "vÃŃa": 2285,
      "ĠtÃ©rm": 2286,
      "inaciÃ³n": 2287,
      "ĠInterna": 2288,
      "ables": 2289,
      "Ġcine": 2290,
      "Ġcolec": 2291,
      "cam": 2292,
      "Ġeven": 2293,
      "ĠSi": 2294,
      "ciaciÃ³n": 2295,
      "ĠXI": 2296,
      "ĠReg": 2297,
      "Ġcampo": 2298,
      "ĠEsto": 2299,
      "Ġw": 2300,
      "Ġiglesia": 2301,
      "Ġcorres": 2302,
      "dar": 2303,
      "dra": 2304,
      "mania": 2305,
      "Ġfuerzas": 2306,
      "vier": 2307,
      "uras": 2308,
      "Durante": 2309,
      "tific": 2310,
      "ificaciÃ³n": 2311,
      "ĠPedro": 2312,
      "ĠReal": 2313,
      "mento": 2314,
      "enci": 2315,
      "Ġepiso": 2316,
      "Ġseis": 2317,
      "Ġempresa": 2318,
      "Ġsac": 2319,
      "americ": 2320,
      "Ġejecu": 2321,
      "Ġedificio": 2322,
      "Ġalrededor": 2323,
      "Ġjo": 2324,
      "mano": 2325,
      "Ġoriginal": 2326,
      "dico": 2327,
      "ĠprÃ¡c": 2328,
      "mit": 2329,
      "Ġempez": 2330,
      "raciÃ³n": 2331,
      "Ġcualquier": 2332,
      "ack": 2333,
      "Ġsoci": 2334,
      "ĠPartido": 2335,
      "Ġmovimiento": 2336,
      "osp": 2337,
      "usiÃ³n": 2338,
      "ĠBer": 2339,
      "Ġkm": 2340,
      "Ġextra": 2341,
      "Ġprincipalmente": 2342,
      "Ġestadounidense": 2343,
      "ite": 2344,
      "grafÃŃa": 2345,
      "Ã©tica": 2346,
      "Ã©ndose": 2347,
      "Ġconjunto": 2348,
      "ĠperÃŃo": 2349,
      "dieron": 2350,
      "ins": 2351,
      "Ġpromo": 2352,
      "Ġ22": 2353,
      "Un": 2354,
      "ĠAd": 2355,
      "Ġ21": 2356,
      "iza": 2357,
      "ÃŃgen": 2358,
      "Ġfuncion": 2359,
      "trimonio": 2360,
      "Ġisla": 2361,
      "mper": 2362,
      "Ġayud": 2363,
      "iene": 2364,
      "Ġcateg": 2365,
      "ĠTa": 2366,
      "ĠRos": 2367,
      "Ġade": 2368,
      "olo": 2369,
      "Ġmadre": 2370,
      "cida": 2371,
      "are": 2372,
      "Ġcanciones": 2373,
      "ĠAntonio": 2374,
      "Ġprimero": 2375,
      "Ġparticular": 2376,
      "Ġado": 2377,
      "Ġabandon": 2378,
      "Ġarte": 2379,
      "cÃ©s": 2380,
      "Ġpalab": 2381,
      "ĠTra": 2382,
      "ĠTras": 2383,
      "land": 2384,
      "Ġconocida": 2385,
      "Ġ23": 2386,
      "ĠAmÃ©rica": 2387,
      "Ġren": 2388,
      "Ġbatalla": 2389,
      "Ġmetros": 2390,
      "Ġcivil": 2391,
      "Ġ2005": 2392,
      "emen": 2393,
      "imiento": 2394,
      "Ġ189": 2395,
      "pan": 2396,
      "ly": 2397,
      "ĠcompaÃ±ÃŃa": 2398,
      "ĠVen": 2399,
      "Ġenfer": 2400,
      "orge": 2401,
      "Ġrecor": 2402,
      "Ġelecciones": 2403,
      "Ġdecir": 2404,
      "ĠAires": 2405,
      "ĠFin": 2406,
      "ridad": 2407,
      "Ġsec": 2408,
      "guas": 2409,
      "Ġaten": 2410,
      "esa": 2411,
      "arias": 2412,
      "Ġdestru": 2413,
      "Ġ0": 2414,
      "ĠpasÃ³": 2415,
      "Ġ2017": 2416,
      "Ġresto": 2417,
      "ĠInstitu": 2418,
      "Ġand": 2419,
      "Ġpl": 2420,
      "hu": 2421,
      "Ġhon": 2422,
      "ĠClub": 2423,
      "Ġima": 2424,
      "ĠrÃ¡p": 2425,
      "yÃ³": 2426,
      "ĠEntre": 2427,
      "tien": 2428,
      "Ġcolabor": 2429,
      "Ġretir": 2430,
      "ecer": 2431,
      "ĠrealizÃ³": 2432,
      "ĠinglÃ©s": 2433,
      "15": 2434,
      "ate": 2435,
      "dir": 2436,
      "Ġmodo": 2437,
      "Ã¡ndo": 2438,
      "leg": 2439,
      "Ġespos": 2440,
      "\"),": 2441,
      "Ġsignifica": 2442,
      "ese": 2443,
      "ierra": 2444,
      "Ġresultado": 2445,
      "ĠHar": 2446,
      "Ġposteriormente": 2447,
      "iles": 2448,
      "ĠVic": 2449,
      "Ġvide": 2450,
      "ĠCons": 2451,
      "Ġdar": 2452,
      "Ġviol": 2453,
      "iam": 2454,
      "bel": 2455,
      "In": 2456,
      "ĠSus": 2457,
      "Ġinterior": 2458,
      "Ġprob": 2459,
      "Ġauto": 2460,
      "rir": 2461,
      "Ġpresenta": 2462,
      "vel": 2463,
      "uls": 2464,
      "usto": 2465,
      "17": 2466,
      "An": 2467,
      "reas": 2468,
      "Ġrelacion": 2469,
      "Ġdetermin": 2470,
      "Ġcomb": 2471,
      "Ġ2000": 2472,
      "Ġ'": 2473,
      "ĠCuando": 2474,
      "Ġapoyo": 2475,
      "Ġdem": 2476,
      "Ġterc": 2477,
      "Ġlim": 2478,
      "guay": 2479,
      "unca": 2480,
      "table": 2481,
      "III": 2482,
      "Ġespecialmente": 2483,
      "ĠCopa": 2484,
      "arca": 2485,
      "ĠtÃ©rmino": 2486,
      "dado": 2487,
      "Ġlar": 2488,
      "ĠganÃ³": 2489,
      "trodu": 2490,
      "lares": 2491,
      "Ġcentral": 2492,
      "dero": 2493,
      "Ġtex": 2494,
      "Ġfra": 2495,
      "ĠcomÃºn": 2496,
      "Ġinternacional": 2497,
      "Ġgri": 2498,
      "Ġ2018": 2499,
      "ĠPr": 2500,
      "Ġdice": 2501,
      "Ġdesarroll": 2502,
      "Ġhijos": 2503,
      "dez": 2504,
      "Ġconci": 2505,
      "Ġadministra": 2506,
      "Ġfrances": 2507,
      "ĠBel": 2508,
      "ĠReino": 2509,
      "cr": 2510,
      "ĠDiv": 2511,
      "Ġelim": 2512,
      "Ġprue": 2513,
      "ĠSur": 2514,
      "Ġequipos": 2515,
      "Ġconten": 2516,
      "estiv": 2517,
      "tun": 2518,
      "Ġdispon": 2519,
      "quis": 2520,
      "ĠÃºnico": 2521,
      "Ġpatr": 2522,
      "ĠpolÃŃtico": 2523,
      "ĠBuenos": 2524,
      "Ã³nica": 2525,
      "Ġconte": 2526,
      "Ġtema": 2527,
      "tÃŃf": 2528,
      "Ġsector": 2529,
      "Ġconsigu": 2530,
      "Ã©m": 2531,
      "Ġital": 2532,
      "Ġfuerte": 2533,
      "Ġposterior": 2534,
      "ĠdirecciÃ³n": 2535,
      "ĠAlemania": 2536,
      "Ġfundad": 2537,
      "ĠCris": 2538,
      "Ġprotagon": 2539,
      "xic": 2540,
      "partamento": 2541,
      "ys": 2542,
      "Ġmencion": 2543,
      "Ġpens": 2544,
      "Ġcri": 2545,
      "Ġpropor": 2546,
      "alizaciÃ³n": 2547,
      "ĠperÃŃodo": 2548,
      "ĠItal": 2549,
      "ĠComo": 2550,
      "tillo": 2551,
      "iado": 2552,
      "Ġhombre": 2553,
      "urope": 2554,
      "Ġespecies": 2555,
      "Ġproblemas": 2556,
      "Ġincor": 2557,
      "iro": 2558,
      "lio": 2559,
      "Ġmusical": 2560,
      "Ġcuad": 2561,
      "Ġtri": 2562,
      "Ġ188": 2563,
      "Ġproce": 2564,
      "Ġ26": 2565,
      "Ġtraslad": 2566,
      "Ġos": 2567,
      "ĠAc": 2568,
      "ancia": 2569,
      "Ġ28": 2570,
      "50": 2571,
      "Ġsea": 2572,
      "Ġsimp": 2573,
      "ĠUniÃ³n": 2574,
      "Ġjef": 2575,
      "Ġocup": 2576,
      "Ġrepresenta": 2577,
      "ley": 2578,
      "dados": 2579,
      "Ġviaj": 2580,
      "iber": 2581,
      "Ġreligios": 2582,
      "Ġhoy": 2583,
      "ĠSegun": 2584,
      "Ġ100": 2585,
      "Ġsecre": 2586,
      "Ġalta": 2587,
      "Ġalto": 2588,
      "ĠDesde": 2589,
      "istr": 2590,
      "ĠsituaciÃ³n": 2591,
      "Ġhistor": 2592,
      "Ġ27": 2593,
      "daciÃ³n": 2594,
      ".\"": 2595,
      "Ġincluyendo": 2596,
      "Ġfecha": 2597,
      "Ġtierra": 2598,
      "Ġllegar": 2599,
      "Ġentren": 2600,
      "umento": 2601,
      "Ġaproxim": 2602,
      "Ġdivi": 2603,
      "fon": 2604,
      "Ġprote": 2605,
      "ĠNorte": 2606,
      "ĠFor": 2607,
      "Ġagr": 2608,
      "Ġhu": 2609,
      "ÃŃculo": 2610,
      "Ġpon": 2611,
      "taciones": 2612,
      "amos": 2613,
      "Ġocur": 2614,
      "ĠllevÃ³": 2615,
      "segu": 2616,
      "ĠinvestigaciÃ³n": 2617,
      "Ġnuevos": 2618,
      "udades": 2619,
      "ĠinformaciÃ³n": 2620,
      "anto": 2621,
      "est": 2622,
      "Ġposi": 2623,
      "Ġpaso": 2624,
      "bal": 2625,
      "ĠvÃŃ": 2626,
      "cra": 2627,
      "Ġobtuvo": 2628,
      "Ġhermano": 2629,
      "Ġabs": 2630,
      "ĠfÃºtbol": 2631,
      "Ġintrodu": 2632,
      "ĠPos": 2633,
      "ĠXX": 2634,
      "Ġhija": 2635,
      "Por": 2636,
      "Ġvir": 2637,
      "ĠGe": 2638,
      "Ġescuela": 2639,
      "vidu": 2640,
      "Ġsuperfici": 2641,
      "Ġacom": 2642,
      "ole": 2643,
      "Ġenvi": 2644,
      "omas": 2645,
      "arÃ¡": 2646,
      "Ġfirm": 2647,
      "Ġespacio": 2648,
      "Ġactividad": 2649,
      "illas": 2650,
      "fica": 2651,
      "culo": 2652,
      "Ġpen": 2653,
      "ĠCab": 2654,
      "Ġvideo": 2655,
      "Ġjoven": 2656,
      "Ġnego": 2657,
      "Ġesper": 2658,
      "Ġpuer": 2659,
      "Ġposib": 2660,
      "pciÃ³n": 2661,
      "Ġcandida": 2662,
      "16": 2663,
      "Ġ2004": 2664,
      "Ġsede": 2665,
      "ĠcreaciÃ³n": 2666,
      "ĠManuel": 2667,
      "adio": 2668,
      "Ġellas": 2669,
      "Ġfron": 2670,
      "ĠediciÃ³n": 2671,
      "Ġprimeras": 2672,
      "Ġpropia": 2673,
      "Ġciudades": 2674,
      "ĠCiudad": 2675,
      "ĠFa": 2676,
      "Ġcantidad": 2677,
      "rido": 2678,
      "ty": 2679,
      "tiago": 2680,
      "Ġrecur": 2681,
      "ĠgÃ©nero": 2682,
      "lin": 2683,
      "Ġpersonaje": 2684,
      "Ġprepar": 2685,
      "Ġnunca": 2686,
      "Ġpare": 2687,
      "'s": 2688,
      "ĠÃ³r": 2689,
      "Ġprovo": 2690,
      "Ġnombrado": 2691,
      "Ġoblig": 2692,
      "12": 2693,
      "Ġintegr": 2694,
      "Ġdijo": 2695,
      "ĠBan": 2696,
      "Ġconce": 2697,
      "terÃŃa": 2698,
      "Ġtropas": 2699,
      "ĠorganizaciÃ³n": 2700,
      "Ġarm": 2701,
      "Ġmodelo": 2702,
      "ner": 2703,
      "Ġextre": 2704,
      "Ġacer": 2705,
      "Ġ187": 2706,
      "bert": 2707,
      "ĠConse": 2708,
      "ĠMartÃŃn": 2709,
      "Ġminu": 2710,
      "Ġeta": 2711,
      "Ġincorpor": 2712,
      "tualmente": 2713,
      "tarse": 2714,
      "ĠformaciÃ³n": 2715,
      "vas": 2716,
      "Ġindividu": 2717,
      "ecen": 2718,
      "Ġobjetivo": 2719,
      "tencia": 2720,
      "Ġcalle": 2721,
      "ĠlogrÃ³": 2722,
      "ey": 2723,
      "irma": 2724,
      "wn": 2725,
      "Ġespecie": 2726,
      "ĠallÃŃ": 2727,
      "ĠfrancÃ©s": 2728,
      "Ġeurope": 2729,
      "Ġraz": 2730,
      "Ġ186": 2731,
      "Ġatr": 2732,
      "Ġalgo": 2733,
      "Â°": 2734,
      "Ġservicios": 2735,
      "uelo": 2736,
      "quÃŃ": 2737,
      "gÃ³": 2738,
      "cada": 2739,
      "Ġenerg": 2740,
      "mentos": 2741,
      "Ġmenor": 2742,
      "igos": 2743,
      "Ġ2019": 2744,
      "Ġdepor": 2745,
      "Ġlibre": 2746,
      "ham": 2747,
      "rando": 2748,
      "manas": 2749,
      "Ġunas": 2750,
      "Ġsir": 2751,
      "Ã¡tico": 2752,
      "turales": 2753,
      "Ġpersonal": 2754,
      "ou": 2755,
      "Ġrevista": 2756,
      "Ġantiguo": 2757,
      "Ġejer": 2758,
      "celona": 2759,
      "ĠIng": 2760,
      "ĠfÃ¡": 2761,
      "Ġderecho": 2762,
      "ĠdecidiÃ³": 2763,
      "ĠImper": 2764,
      "Ġvalor": 2765,
      "Ġahora": 2766,
      "triz": 2767,
      "Ġib": 2768,
      ".,": 2769,
      "Ġnuevas": 2770,
      "Ġproces": 2771,
      "ĠJun": 2772,
      "ĠVir": 2773,
      "media": 2774,
      "ĠGal": 2775,
      "ĠAustr": 2776,
      "Para": 2777,
      "ĠcampaÃ±a": 2778,
      "wa": 2779,
      "Ġfuerza": 2780,
      "berto": 2781,
      "ft": 2782,
      "tual": 2783,
      "ĠInternacional": 2784,
      "ĠdiseÃ±": 2785,
      "Ġinform": 2786,
      "ĠBen": 2787,
      "Ġconcep": 2788,
      "Ġorien": 2789,
      "Ġafec": 2790,
      "del": 2791,
      "Ġgas": 2792,
      "Ġmul": 2793,
      "Ġfon": 2794,
      "rÃ³": 2795,
      "Ġcelebr": 2796,
      "ĠItalia": 2797,
      "Ġelementos": 2798,
      "Ġvictoria": 2799,
      "Ġetc": 2800,
      "ĠGra": 2801,
      "ĠSte": 2802,
      "tern": 2803,
      "Ġbal": 2804,
      "Tras": 2805,
      "iamente": 2806,
      "...": 2807,
      "ĠacompaÃ±": 2808,
      "Ġaparece": 2809,
      "Ġdin": 2810,
      "Ġpresencia": 2811,
      "ĠDivisiÃ³n": 2812,
      "Ġdatos": 2813,
      "estival": 2814,
      "itud": 2815,
      "ÃŃstica": 2816,
      "Ġjugador": 2817,
      "ĠPas": 2818,
      "ple": 2819,
      "ĠseÃ±al": 2820,
      "deo": 2821,
      "ĠEsc": 2822,
      "ĠSegunda": 2823,
      "Ġcorrespon": 2824,
      "Ġpresiden": 2825,
      "Ġ50": 2826,
      "ĠespaÃ±ola": 2827,
      "Ġdiversos": 2828,
      "titud": 2829,
      "ĠdiseÃ±o": 2830,
      "Ġmonta": 2831,
      "Ġtemas": 2832,
      "Cu": 2833,
      "diendo": 2834,
      "ĠÃºltimos": 2835,
      "iencia": 2836,
      "Ġpron": 2837,
      "Ġpartes": 2838,
      "Ġavi": 2839,
      "ĠanunciÃ³": 2840,
      "Ġcolo": 2841,
      "ĠHis": 2842,
      "Ġquin": 2843,
      "ĠÃ©s": 2844,
      "Ġtrata": 2845,
      "ĠMay": 2846,
      "ĠcientÃŃf": 2847,
      "onda": 2848,
      "Ġayuda": 2849,
      "Ã©tico": 2850,
      "Ġsencillo": 2851,
      "iguel": 2852,
      "ĠGobierno": 2853,
      "Ġlista": 2854,
      "ĠBol": 2855,
      "Ġcasos": 2856,
      "torios": 2857,
      "Ġingres": 2858,
      "Ġfac": 2859,
      "ĠAu": 2860,
      "Ġcapacidad": 2861,
      "terra": 2862,
      "rique": 2863,
      "ĠRus": 2864,
      "ĠParÃŃs": 2865,
      "Ġoeste": 2866,
      "tÃŃa": 2867,
      "tus": 2868,
      "ĠIglesia": 2869,
      "ĠSol": 2870,
      "ĠSantiago": 2871,
      "199": 2872,
      "Ġmuestra": 2873,
      "Ġdesapar": 2874,
      "ÃŃculos": 2875,
      "mer": 2876,
      "Ġactividades": 2877,
      "Ġderechos": 2878,
      "seÃ±": 2879,
      "ĠpublicÃ³": 2880,
      "ĠDu": 2881,
      "lante": 2882,
      "Ġlocalidad": 2883,
      "ĠvolviÃ³": 2884,
      "Ġcru": 2885,
      "Ġpersonajes": 2886,
      "Ġcristi": 2887,
      "Ġlig": 2888,
      "Ġrealizar": 2889,
      "ĠTe": 2890,
      "Ġexisten": 2891,
      "Ġcausa": 2892,
      "Ġ29": 2893,
      "Ġil": 2894,
      "ĠInstituto": 2895,
      "Ġperiodo": 2896,
      "Desde": 2897,
      "Ġ2003": 2898,
      "ĠparticipÃ³": 2899,
      "Ġdistribu": 2900,
      "Ġindependi": 2901,
      "ĠCentro": 2902,
      "fe": 2903,
      "Ġfab": 2904,
      "Ãºa": 2905,
      "ĠDan": 2906,
      "Ġmaes": 2907,
      "Ġaz": 2908,
      "Ġcolon": 2909,
      "Ġobserv": 2910,
      "Ġdesemp": 2911,
      "ĠPero": 2912,
      "Ġprincipio": 2913,
      "ĠBe": 2914,
      "ĠMer": 2915,
      "30": 2916,
      "Ġfalle": 2917,
      "ĠEdu": 2918,
      "demia": 2919,
      "Ġimagen": 2920,
      "rica": 2921,
      "peÃ³n": 2922,
      "bres": 2923,
      "Ã©g": 2924,
      "Ġdicho": 2925,
      "Ġprome": 2926,
      "ecre": 2927,
      "Ġcorre": 2928,
      "metros": 2929,
      "Ġred": 2930,
      "ĠBarcelona": 2931,
      "ĠPal": 2932,
      "Ġdescub": 2933,
      "Ġtorn": 2934,
      "Ġtec": 2935,
      "No": 2936,
      "Ġquienes": 2937,
      "ĠRam": 2938,
      "Ġnoche": 2939,
      "ines": 2940,
      "Ġjur": 2941,
      "ĠpodrÃŃa": 2942,
      "Ġcomunidad": 2943,
      "Ġsociedad": 2944,
      "14": 2945,
      "tilla": 2946,
      "Fue": 2947,
      "Ġtercer": 2948,
      "ĠnaciÃ³": 2949,
      "Ġmit": 2950,
      "lecciÃ³n": 2951,
      "Una": 2952,
      "Ġesca": 2953,
      "rÃŃa": 2954,
      "ĠWill": 2955,
      "Ġpersona": 2956,
      "Ġbor": 2957,
      "guna": 2958,
      "ĠSuper": 2959,
      "ĠfÃŃs": 2960,
      "pendencia": 2961,
      "ĠMil": 2962,
      "cidental": 2963,
      "ĠEjÃ©rcito": 2964,
      "Ġinm": 2965,
      "Ġdesp": 2966,
      "Ġgracias": 2967,
      "ĠescribiÃ³": 2968,
      "nes": 2969,
      "Ġformula": 2970,
      "ĠConsejo": 2971,
      "ĠPrimera": 2972,
      "Ġmanten": 2973,
      "rendi": 2974,
      "arlo": 2975,
      "Ġgrande": 2976,
      "Ġmando": 2977,
      "Ġzonas": 2978,
      "Ġpudo": 2979,
      "ĠcategorÃŃa": 2980,
      "ĠMiguel": 2981,
      "itas": 2982,
      "tarios": 2983,
      "Ġsuces": 2984,
      "Ġactualmente": 2985,
      "bia": 2986,
      "dap": 2987,
      "ĠÃ³": 2988,
      "Ġmedios": 2989,
      "Ġepisodio": 2990,
      "ticamente": 2991,
      "Ġlucha": 2992,
      "ror": 2993,
      "Ġestructura": 2994,
      "irse": 2995,
      "ok": 2996,
      "ĠLond": 2997,
      "dica": 2998,
      "Ġdiferencia": 2999,
      "ĠLiga": 3000,
      "ĠniÃ±os": 3001,
      "Ġacab": 3002,
      "Ġpriv": 3003,
      "ĠJes": 3004,
      "Ġabier": 3005,
      "Ġrespons": 3006,
      "Ġaprob": 3007,
      "laciones": 3008,
      "Ġradio": 3009,
      "Ã¡g": 3010,
      "Ġelectr": 3011,
      "Ġcultura": 3012,
      "ĠquedÃ³": 3013,
      "ye": 3014,
      "Ġventa": 3015,
      "ĠOl": 3016,
      "ĠPerÃº": 3017,
      "Ġreco": 3018,
      "Ġotor": 3019,
      "ili": 3020,
      "dente": 3021,
      "han": 3022,
      "Ġev": 3023,
      "ĠÃºnica": 3024,
      "augu": 3025,
      "estiÃ³n": 3026,
      "ĠRey": 3027,
      "ĠJap": 3028,
      "inar": 3029,
      "ĠpequeÃ±o": 3030,
      "Ġvari": 3031,
      "Ġesposa": 3032,
      "Ġmedia": 3033,
      "ches": 3034,
      "Ġemi": 3035,
      "ij": 3036,
      "ĠMal": 3037,
      "vid": 3038,
      "Ġfinan": 3039,
      "Ġaproximadamente": 3040,
      "Ġmitad": 3041,
      "ĠâĢĵ": 3042,
      "ÃŃstico": 3043,
      "ulas": 3044,
      "rÃ¡n": 3045,
      "Ġadap": 3046,
      "ĠNew": 3047,
      "ĠBro": 3048,
      "ĠparticipaciÃ³n": 3049,
      "tida": 3050,
      "ĠestaciÃ³n": 3051,
      "Ġelegido": 3052,
      "Ġinteres": 3053,
      "Ġiz": 3054,
      "Ġmedida": 3055,
      "Ġobten": 3056,
      "ega": 3057,
      "Ġsitio": 3058,
      "Ġfinaliz": 3059,
      "Ġinaugu": 3060,
      "Ġdiversas": 3061,
      "vos": 3062,
      "Ġsem": 3063,
      "Ġtama": 3064,
      "ity": 3065,
      "alacio": 3066,
      "Ġmanif": 3067,
      "Ã¡tica": 3068,
      "Ġfigu": 3069,
      "ibuy": 3070,
      "Ġreemp": 3071,
      "ĠBras": 3072,
      "13": 3073,
      "ĠCos": 3074,
      "icÃŃa": 3075,
      "Ġ2002": 3076,
      "Ġim": 3077,
      "Ġvelo": 3078,
      "Ġprofun": 3079,
      "Ġcuyo": 3080,
      "Ġluz": 3081,
      "ÃŃm": 3082,
      "cepciÃ³n": 3083,
      "alla": 3084,
      "ice": 3085,
      "ĠtenÃŃan": 3086,
      "laterra": 3087,
      "Ġol": 3088,
      "ĠOs": 3089,
      "ĠclÃ¡s": 3090,
      "ĠUnido": 3091,
      "enÃ³": 3092,
      "ĠAunque": 3093,
      "Ġgira": 3094,
      "tieron": 3095,
      "Ġmostr": 3096,
      "ĠHu": 3097,
      "rar": 3098,
      "ultura": 3099,
      "Ġmercado": 3100,
      "ps": 3101,
      "ispo": 3102,
      "Ġresta": 3103,
      "ĠRec": 3104,
      "Ġconvertir": 3105,
      "ĠXIX": 3106,
      "Ġtecn": 3107,
      "ĠÃģn": 3108,
      "Ġhoras": 3109,
      "ĠDi": 3110,
      "Ġjefe": 3111,
      "dÃ³": 3112,
      "Ġer": 3113,
      "Ġataque": 3114,
      "Ġtercera": 3115,
      "tador": 3116,
      "Ġ2001": 3117,
      "Ġclar": 3118,
      "DespuÃ©s": 3119,
      "Ġplata": 3120,
      "cien": 3121,
      "fi": 3122,
      "Ġcumpl": 3123,
      "Ġsimilar": 3124,
      "ĠenergÃŃa": 3125,
      "itario": 3126,
      "Ġproductor": 3127,
      "Ġsuperficie": 3128,
      "Ġparticipar": 3129,
      "Ġmenudo": 3130,
      "todo": 3131,
      "Ġ1990": 3132,
      "Ġizquier": 3133,
      "Ġinfluencia": 3134,
      "ĠIII": 3135,
      "Ġarmas": 3136,
      "gal": 3137,
      "Ġpermite": 3138,
      "ĠAsÃŃ": 3139,
      "ĠFernando": 3140,
      "Ġantigua": 3141,
      "Ġsustitu": 3142,
      "ker": 3143,
      "Ġapoy": 3144,
      "cando": 3145,
      "onel": 3146,
      "diciÃ³n": 3147,
      "Ġrecha": 3148,
      "Ġmatrimonio": 3149,
      "ĠInglaterra": 3150,
      "Ġcantante": 3151,
      "Ġluch": 3152,
      "ĠacciÃ³n": 3153,
      "turo": 3154,
      "len": 3155,
      "ĠRu": 3156,
      "ĠEscuela": 3157,
      "Ġclase": 3158,
      "curso": 3159,
      "Ġdesta": 3160,
      "Ġproporcion": 3161,
      "ĠAb": 3162,
      "torial": 3163,
      "ĠMas": 3164,
      "ĠSegÃºn": 3165,
      "Ġenferme": 3166,
      "guir": 3167,
      "Ġnin": 3168,
      "Ġhonor": 3169,
      "ĠÃī": 3170,
      "Ġadqui": 3171,
      "Ã¡mara": 3172,
      "ombia": 3173,
      "Ġconcier": 3174,
      "Ġnovela": 3175,
      "ĠTri": 3176,
      "icio": 3177,
      "Ġsiete": 3178,
      "ianza": 3179,
      "cidente": 3180,
      "Ġ40": 3181,
      "ĠfunciÃ³n": 3182,
      "Ġoro": 3183,
      "iere": 3184,
      "Ġcamp": 3185,
      "ame": 3186,
      "Ġocasiones": 3187,
      "Ġimportancia": 3188,
      "rin": 3189,
      "itÃ¡n": 3190,
      "Ġtorneo": 3191,
      "11": 3192,
      "ĠinterÃ©s": 3193,
      "Ġreac": 3194,
      "Ġrespecto": 3195,
      "ĠAca": 3196,
      "Ġmexic": 3197,
      "Ġidea": 3198,
      "her": 3199,
      "Entre": 3200,
      "ĠMich": 3201,
      "clam": 3202,
      "ficaciÃ³n": 3203,
      "Ġcla": 3204,
      "Ġpublicado": 3205,
      "Ġdemos": 3206,
      "Ġmec": 3207,
      "ĠFeder": 3208,
      "Ġnorm": 3209,
      "ĠImperio": 3210,
      "at": 3211,
      "Ġtrabajos": 3212,
      "dÃŃan": 3213,
      "Ġvendi": 3214,
      "Ġtales": 3215,
      "Ġtradu": 3216,
      "ximo": 3217,
      "tud": 3218,
      "ĠComun": 3219,
      "alia": 3220,
      "ĠSch": 3221,
      "Ġcondiciones": 3222,
      "ĠcaracterÃŃsticas": 3223,
      "Ġhici": 3224,
      "tiendo": 3225,
      "ĠOri": 3226,
      "manos": 3227,
      "dena": 3228,
      "ĠtamaÃ±o": 3229,
      "Ġnu": 3230,
      "ĠGon": 3231,
      "Ġgal": 3232,
      "Ġamor": 3233,
      "ĠpelÃŃculas": 3234,
      "lla": 3235,
      "ĠBal": 3236,
      "Ġlibros": 3237,
      "pir": 3238,
      "ĠLondres": 3239,
      "âĢĿ,": 3240,
      "Ġdesempe": 3241,
      "Ġderi": 3242,
      "bla": 3243,
      "Ġlleva": 3244,
      "ĠpequeÃ±a": 3245,
      "Ġ&": 3246,
      "Ġdescon": 3247,
      "ubo": 3248,
      "Ġconflic": 3249,
      "teca": 3250,
      "Ġartistas": 3251,
      "Ġmaterial": 3252,
      "ash": 3253,
      "âĢĻ": 3254,
      "ĠFuer": 3255,
      "\").": 3256,
      "Ġaumen": 3257,
      "adres": 3258,
      "Ġmediados": 3259,
      "rantes": 3260,
      "Ġcomposi": 3261,
      "ĠHe": 3262,
      "Ġaspec": 3263,
      "ĠeducaciÃ³n": 3264,
      "ĠNic": 3265,
      "Ġtierras": 3266,
      "Ġactualidad": 3267,
      "Ġrelaciones": 3268,
      "Ġplanta": 3269,
      "ĠGre": 3270,
      "ĠDer": 3271,
      "eli": 3272,
      "Ġincluye": 3273,
      "Ġmejores": 3274,
      "ĠPan": 3275,
      "ĠJapÃ³n": 3276,
      "Ã¡cter": 3277,
      "Ġaltura": 3278,
      "Ġprobable": 3279,
      "grÃ¡fica": 3280,
      "Ġcuya": 3281,
      "Ġencontrar": 3282,
      "quil": 3283,
      "Ġescritor": 3284,
      "quia": 3285,
      "Ġcamino": 3286,
      "Ġprofesor": 3287,
      "ĠMuseo": 3288,
      "ĠMc": 3289,
      "ĠColombia": 3290,
      "ses": 3291,
      "Ġrecuper": 3292,
      "jar": 3293,
      "ĠCongreso": 3294,
      "ĠalemÃ¡n": 3295,
      "Ġcabeza": 3296,
      "Ġclasific": 3297,
      "ĠCruz": 3298,
      "ĠdejÃ³": 3299,
      "Ġrealidad": 3300,
      "ĠcarÃ¡cter": 3301,
      "cina": 3302,
      "Ġsos": 3303,
      "Ġconcl": 3304,
      "Ġteatro": 3305,
      "use": 3306,
      "ĠÃģngel": 3307,
      "tol": 3308,
      "Ġdado": 3309,
      "iblio": 3310,
      "Ġdiez": 3311,
      "ĠCap": 3312,
      "Ã©ctr": 3313,
      "Ġsuce": 3314,
      "isterio": 3315,
      "Ġprofesional": 3316,
      "ĠTur": 3317,
      "log": 3318,
      "Ġenem": 3319,
      "ĠMÃ¡s": 3320,
      "ĠChar": 3321,
      "xima": 3322,
      "ĠCatal": 3323,
      "Ġcalidad": 3324,
      "cidos": 3325,
      "Ġextran": 3326,
      "Ġterren": 3327,
      "ĠBrasil": 3328,
      "ĠEstos": 3329,
      "Ġ184": 3330,
      "ablo": 3331,
      "blos": 3332,
      "Ġetapa": 3333,
      "ospital": 3334,
      "Ġinmedia": 3335,
      "itan": 3336,
      "tista": 3337,
      "isis": 3338,
      "stru": 3339,
      "cados": 3340,
      "Ġjugadores": 3341,
      "ĠdivisiÃ³n": 3342,
      "Ġnar": 3343,
      "Ġmundial": 3344,
      "ĠpresentÃ³": 3345,
      "ĠmuriÃ³": 3346,
      "Ġdon": 3347,
      "tÃŃ": 3348,
      "Ġjud": 3349,
      "Ġpi": 3350,
      "ĠLuego": 3351,
      "isa": 3352,
      "ĠÃ¡r": 3353,
      "ĠGa": 3354,
      "Ġgobernador": 3355,
      "ime": 3356,
      "Ġestra": 3357,
      "Ġsimple": 3358,
      "ĠEd": 3359,
      "Ġdicha": 3360,
      "Ġesf": 3361,
      "Ġvan": 3362,
      "Ã³l": 3363,
      "asa": 3364,
      "gunos": 3365,
      "Ġfoto": 3366,
      "deres": 3367,
      "si": 3368,
      "Ar": 3369,
      "ferencia": 3370,
      "venes": 3371,
      "uales": 3372,
      "icales": 3373,
      "Ġdesign": 3374,
      "Ġfundam": 3375,
      "ĠChina": 3376,
      "Ġcosta": 3377,
      "Ġcome": 3378,
      "Ã³venes": 3379,
      "Ġacus": 3380,
      "onte": 3381,
      "Ġcrear": 3382,
      "Ġmodi": 3383,
      "ĠFo": 3384,
      "Ġbaja": 3385,
      "Ġmilitares": 3386,
      "rios": 3387,
      "]]": 3388,
      "Ġmano": 3389,
      "echo": 3390,
      "âĢĵ": 3391,
      "Ġexcl": 3392,
      "Ġingen": 3393,
      "Ġsistemas": 3394,
      "ĠDel": 3395,
      "pal": 3396,
      "Ġcerc": 3397,
      "Ã¶": 3398,
      "ĠtodavÃŃa": 3399,
      "Ġvig": 3400,
      "ĠBur": 3401,
      "ĠRÃŃo": 3402,
      "culos": 3403,
      "Ġsociales": 3404,
      "egio": 3405,
      "Ġlugares": 3406,
      "Ġmanos": 3407,
      "ivos": 3408,
      "ĠLeÃ³n": 3409,
      "ĠDon": 3410,
      "ini": 3411,
      "Ġconoce": 3412,
      "Ġcombate": 3413,
      "Ġnuevamente": 3414,
      "rieron": 3415,
      "iedad": 3416,
      "ĠTu": 3417,
      "Ġrefle": 3418,
      "cla": 3419,
      "198": 3420,
      "Ġmantener": 3421,
      "cto": 3422,
      "ĠRom": 3423,
      "Ġocho": 3424,
      "ĠRoma": 3425,
      "Ġfigura": 3426,
      "ĠConstitu": 3427,
      "uestra": 3428,
      "ilÃ³": 3429,
      "Ġ1999": 3430,
      "ĠGarcÃŃa": 3431,
      "Ġcomienza": 3432,
      "olucion": 3433,
      "Ġdic": 3434,
      "ames": 3435,
      "ks": 3436,
      "Ġrepar": 3437,
      "Ġsentido": 3438,
      "Ġsemana": 3439,
      "Ġran": 3440,
      "Ġmez": 3441,
      "ferior": 3442,
      "Ġ185": 3443,
      "Ġfinanci": 3444,
      "isiones": 3445,
      "ĠterminÃ³": 3446,
      "Ġproductos": 3447,
      "Ġ1980": 3448,
      "ĠPu": 3449,
      "Ġadop": 3450,
      "Ġusu": 3451,
      "tz": 3452,
      "ionales": 3453,
      ");": 3454,
      "Ġav": 3455,
      "âĢĿ.": 3456,
      "Ġentrada": 3457,
      "ĠVenez": 3458,
      "ĠDis": 3459,
      "Ġseguridad": 3460,
      "ĠJer": 3461,
      "Ġasum": 3462,
      "Ġmol": 3463,
      "Ġobtener": 3464,
      "olÃ³gico": 3465,
      "su": 3466,
      "ĠKa": 3467,
      "dan": 3468,
      "Ġimper": 3469,
      "Ġbos": 3470,
      "idamente": 3471,
      "gentino": 3472,
      "Ġtrabajar": 3473,
      "Ġresiden": 3474,
      "Ġministro": 3475,
      "Ġinstr": 3476,
      "Ġevitar": 3477,
      "enn": 3478,
      "ĠRes": 3479,
      "inal": 3480,
      "uraciÃ³n": 3481,
      "uros": 3482,
      "ws": 3483,
      "ĠiniciÃ³": 3484,
      "Ġminutos": 3485,
      "Ġacceso": 3486,
      "Ġescul": 3487,
      "ĠcatÃ³": 3488,
      "ĠTierra": 3489,
      "org": 3490,
      "Ġlocales": 3491,
      "Ġtempera": 3492,
      "taria": 3493,
      "Ġcanal": 3494,
      "esiÃ³n": 3495,
      "ĠHol": 3496,
      "ĠRev": 3497,
      "blic": 3498,
      "Ġoper": 3499,
      "ney": 3500,
      "Ġformar": 3501,
      "yos": 3502,
      "Ġasoci": 3503,
      "Ġlong": 3504,
      "lez": 3505,
      "Ġcompon": 3506,
      "ĠSon": 3507,
      "Ġgolpe": 3508,
      "Ġsoldados": 3509,
      "Ġpremio": 3510,
      "genes": 3511,
      "Ġpropiedad": 3512,
      "ĠVer": 3513,
      "Ġmi": 3514,
      "ĠDire": 3515,
      "ĠLey": 3516,
      "ĠPremio": 3517,
      "Ġsigue": 3518,
      "ĠTom": 3519,
      "Ġcic": 3520,
      "Ã¡ndez": 3521,
      "Ġverano": 3522,
      "yn": 3523,
      "produ": 3524,
      "aya": 3525,
      "uegos": 3526,
      "abilidad": 3527,
      "Ġamen": 3528,
      "Ġcuen": 3529,
      "iforn": 3530,
      "ciente": 3531,
      "Ġrestos": 3532,
      "Ġreferencia": 3533,
      "ingÃºn": 3534,
      "Ġsor": 3535,
      "Ġvista": 3536,
      "ĠperiÃ³": 3537,
      "ĠenseÃ±": 3538,
      "Ġformas": 3539,
      "ĠVilla": 3540,
      "deraciÃ³n": 3541,
      "ane": 3542,
      "Ġproteg": 3543,
      "ood": 3544,
      "Ġcomercial": 3545,
      "Ġinferior": 3546,
      "amo": 3547,
      "Ġcorri": 3548,
      "ĠGonz": 3549,
      "Ġfase": 3550,
      "Ġdefini": 3551,
      "Ġincluyen": 3552,
      "ÃŃfico": 3553,
      "Ġsolici": 3554,
      "Ġcontac": 3555,
      "Ġdefensa": 3556,
      "Âª": 3557,
      "Ġafirm": 3558,
      "Ġempresas": 3559,
      "Ġmotor": 3560,
      "Ġdestin": 3561,
      "Ġfalta": 3562,
      "mpor": 3563,
      "zÃ³": 3564,
      "uri": 3565,
      "Ġatac": 3566,
      "emos": 3567,
      "don": 3568,
      "Ġon": 3569,
      "ĠjÃ³venes": 3570,
      "Ġconsiderado": 3571,
      "Ġunidades": 3572,
      "Ġ1998": 3573,
      "ĠteorÃŃa": 3574,
      "Ġsecund": 3575,
      "Ġasegu": 3576,
      "Ġpobl": 3577,
      "adÃ¡": 3578,
      "Ġguitar": 3579,
      "Ġprodujo": 3580,
      "ĠempezÃ³": 3581,
      "portun": 3582,
      "ĠDie": 3583,
      "Ġfies": 3584,
      "ĠcÃ³mo": 3585,
      "ĠTele": 3586,
      "Ġcelebra": 3587,
      "cab": 3588,
      "sen": 3589,
      "jes": 3590,
      "Ġguar": 3591,
      "tedr": 3592,
      "Ġcel": 3593,
      "ĠselecciÃ³n": 3594,
      "ĠpodÃŃa": 3595,
      "Ġgr": 3596,
      "manes": 3597,
      "gencia": 3598,
      "aja": 3599,
      "Ġexiste": 3600,
      "rael": 3601,
      "ĠWilliam": 3602,
      "Ġcambios": 3603,
      "censo": 3604,
      "untos": 3605,
      "ight": 3606,
      "ĠlanzÃ³": 3607,
      "Ġaire": 3608,
      "Ġlec": 3609,
      "Ġcompeti": 3610,
      "Ġinicia": 3611,
      "ĠdÃ³": 3612,
      "ĠlÃŃder": 3613,
      "Ġbene": 3614,
      "Ġ31": 3615,
      "iller": 3616,
      "Ġveh": 3617,
      "alo": 3618,
      "itado": 3619,
      "Ġlevan": 3620,
      "ĠCentral": 3621,
      "Ġconcen": 3622,
      "Ġnumerosos": 3623,
      "Ġmayores": 3624,
      "ĠcreÃ³": 3625,
      "Ġplaza": 3626,
      "Ġdistrito": 3627,
      "Como": 3628,
      "Ġcorte": 3629,
      "Ġjuegos": 3630,
      "Ġelev": 3631,
      "ĠpÃºblica": 3632,
      "Ġvolver": 3633,
      "quiere": 3634,
      "Ġgeneralmente": 3635,
      "Ġselec": 3636,
      "ĠCampeonato": 3637,
      "ĠDavid": 3638,
      "ĠFer": 3639,
      "tall": 3640,
      "tarÃŃa": 3641,
      "ĠFil": 3642,
      "ky": 3643,
      "Na": 3644,
      "Ġvio": 3645,
      "ision": 3646,
      "ive": 3647,
      "Ġdispar": 3648,
      "ensiÃ³n": 3649,
      "Ġlic": 3650,
      "ĠChris": 3651,
      "quÃŃa": 3652,
      "Ġresultados": 3653,
      "Ġce": 3654,
      "Ġprogramas": 3655,
      "eos": 3656,
      "oro": 3657,
      "venciÃ³n": 3658,
      "usticia": 3659,
      "Ġoportun": 3660,
      "Ġsalud": 3661,
      "bano": 3662,
      "Ġnav": 3663,
      "ĠÃ¡reas": 3664,
      "ĠlÃŃmi": 3665,
      "cta": 3666,
      "ĠningÃºn": 3667,
      "Ġmemor": 3668,
      "amÃ©rica": 3669,
      "Ġtre": 3670,
      "Ġcuanto": 3671,
      "ĠLi": 3672,
      "Ġlabor": 3673,
      "Ġgrad": 3674,
      "Ġmarca": 3675,
      "Ġdipu": 3676,
      "Ġhumanos": 3677,
      "Ġ1970": 3678,
      "Ġavanz": 3679,
      "Ġalim": 3680,
      "iencias": 3681,
      "Ġanteriores": 3682,
      "ag": 3683,
      "Ġperiodis": 3684,
      "Ġsel": 3685,
      "Ġbarrio": 3686,
      "tidos": 3687,
      "Ġferro": 3688,
      "ĠVenezuela": 3689,
      "ĠArm": 3690,
      "ifornia": 3691,
      "iaciÃ³n": 3692,
      "iss": 3693,
      "Re": 3694,
      "SA": 3695,
      "Ġartista": 3696,
      "Ġrebel": 3697,
      "Ġflu": 3698,
      "berg": 3699,
      "lano": 3700,
      "Ġadi": 3701,
      "Ġgente": 3702,
      "Ġtuvieron": 3703,
      "Ġpadres": 3704,
      "Ġenter": 3705,
      "Ġ2020": 3706,
      "ju": 3707,
      "Ġvoz": 3708,
      "ĠcampeÃ³n": 3709,
      "Ġvelocidad": 3710,
      "Ġimpres": 3711,
      "ĠDomin": 3712,
      "Ã³vil": 3713,
      "Ġano": 3714,
      "by": 3715,
      "Ġsurg": 3716,
      "alizado": 3717,
      "Ġalma": 3718,
      "Ġexterior": 3719,
      "Ġguer": 3720,
      "Ġbre": 3721,
      "Ġviaje": 3722,
      "tadores": 3723,
      "Ġeso": 3724,
      "Ġ182": 3725,
      "Ġcruz": 3726,
      "Ġfines": 3727,
      "ĠProvin": 3728,
      "Ġens": 3729,
      "Ġcop": 3730,
      "ĠMientras": 3731,
      "gada": 3732,
      "Ġalcal": 3733,
      "ward": 3734,
      "Ġhermanos": 3735,
      "Ġaven": 3736,
      "Ġextranj": 3737,
      "Ch": 3738,
      "Ġ183": 3739,
      "torno": 3740,
      "Ġdemo": 3741,
      "Ġ60": 3742,
      "Ġdig": 3743,
      "ibles": 3744,
      "Ġliter": 3745,
      "isla": 3746,
      "pez": 3747,
      "Ġfan": 3748,
      "ĠconsiguiÃ³": 3749,
      "lores": 3750,
      "itÃ©": 3751,
      "Ġinicio": 3752,
      "ĠDios": 3753,
      "Ġefecto": 3754,
      "Ġpueblos": 3755,
      "zado": 3756,
      "Ġrealizado": 3757,
      "Ġjugar": 3758,
      "aro": 3759,
      "Ġutiliza": 3760,
      "Ġambas": 3761,
      "quista": 3762,
      "Ġpilo": 3763,
      "ĠAy": 3764,
      "Ġarch": 3765,
      "ung": 3766,
      "ĠapareciÃ³": 3767,
      "Ġoficiales": 3768,
      "Ġcontrato": 3769,
      "Ġlongitud": 3770,
      "Ġobstante": 3771,
      "Ġtoma": 3772,
      "Ġpasado": 3773,
      "icaciones": 3774,
      "orm": 3775,
      "Ġidentific": 3776,
      "ĠserÃ¡": 3777,
      "Ġvuelta": 3778,
      "Ġlanzamiento": 3779,
      "Ġllegada": 3780,
      "Ġsignific": 3781,
      "li": 3782,
      "uelas": 3783,
      "Ġpoten": 3784,
      "ĠcomunicaciÃ³n": 3785,
      "Ġ1996": 3786,
      "Ġindustria": 3787,
      "acto": 3788,
      "ĠtrabajÃ³": 3789,
      "Ġbuena": 3790,
      "mios": 3791,
      "\"\"": 3792,
      "ĠAnd": 3793,
      "Ġposee": 3794,
      "ĠCla": 3795,
      "ĠdemÃ¡s": 3796,
      "ĠespaÃ±oles": 3797,
      "art": 3798,
      "Ġconvo": 3799,
      "ĠEm": 3800,
      "Ġanimales": 3801,
      "ĠEspaÃ±ol": 3802,
      "Ġcarre": 3803,
      "Ġblanco": 3804,
      "amble": 3805,
      "Ġencontraba": 3806,
      "Ġconfirm": 3807,
      "Ġpocos": 3808,
      "ĠHen": 3809,
      "San": 3810,
      "Ġ1997": 3811,
      "Ġcuarto": 3812,
      "Ġdeber": 3813,
      "Ġmunicipal": 3814,
      "TambiÃ©n": 3815,
      "ĠlÃŃneas": 3816,
      "Ġelabor": 3817,
      "ĠPresidente": 3818,
      "torias": 3819,
      "Ġcomand": 3820,
      "Ġactor": 3821,
      "Ġdra": 3822,
      "rÃ³n": 3823,
      "cipe": 3824,
      "Ã¡lisis": 3825,
      "mÃ¡tica": 3826,
      "Ġcatal": 3827,
      "Ġcultural": 3828,
      "ĠformÃ³": 3829,
      "ĠAcademia": 3830,
      "Ġdepartamento": 3831,
      "ting": 3832,
      "Ġhicieron": 3833,
      "Ġhaciendo": 3834,
      "Ġfru": 3835,
      "ĠEnrique": 3836,
      "Ġplantas": 3837,
      "dores": 3838,
      "Esta": 3839,
      "Ġ1995": 3840,
      "Â«": 3841,
      "gentes": 3842,
      "Ġregular": 3843,
      "ĠÃ¡rbol": 3844,
      "Ġcrecimiento": 3845,
      "Ġllevar": 3846,
      "tig": 3847,
      "ĠFlor": 3848,
      "Ġlanzado": 3849,
      "Ġcentr": 3850,
      "Ġtipos": 3851,
      "ĠpolicÃŃa": 3852,
      "Ġbel": 3853,
      "ĠdÃ³lares": 3854,
      "Ġtradicional": 3855,
      "ĠOb": 3856,
      "Ġexpe": 3857,
      "Ġmanifes": 3858,
      "tle": 3859,
      "ĠJorge": 3860,
      "vador": 3861,
      "Ġhe": 3862,
      "usta": 3863,
      "ĠatenciÃ³n": 3864,
      "ĠkilÃ³": 3865,
      "teratura": 3866,
      "ĠadministraciÃ³n": 3867,
      "ington": 3868,
      "abe": 3869,
      "Ġaplic": 3870,
      "ore": 3871,
      "ĠLiber": 3872,
      "ĠPop": 3873,
      "ĠFre": 3874,
      "Ġidi": 3875,
      "ĠEstu": 3876,
      "Ġlengua": 3877,
      "ĠEr": 3878,
      "Ġargu": 3879,
      "Ġcubier": 3880,
      "ĠtomÃ³": 3881,
      "istente": 3882,
      "Ġtomar": 3883,
      "ĠFu": 3884,
      "Ġarro": 3885,
      "ĠAg": 3886,
      "Ġmantuvo": 3887,
      "iados": 3888,
      "Ġperteneci": 3889,
      "Ġpasar": 3890,
      "ĠpolÃŃticos": 3891,
      "ĠRusia": 3892,
      "ĠCasa": 3893,
      "ĠbÃ¡s": 3894,
      "Mar": 3895,
      "ĠpolÃŃticas": 3896,
      "Ġfrecu": 3897,
      "Ġ1994": 3898,
      "Ġgoles": 3899,
      "imismo": 3900,
      "Ġverda": 3901,
      "Ġpalabras": 3902,
      "ĠFestival": 3903,
      "Â²": 3904,
      "ĠMonte": 3905,
      "ĠdifÃŃ": 3906,
      "Ġsufici": 3907,
      "Ġdinero": 3908,
      "Ġexistencia": 3909,
      "Ġganar": 3910,
      "Ġblo": 3911,
      "Ġemper": 3912,
      "rada": 3913,
      "Ġ1992": 3914,
      "Ġrepu": 3915,
      "Ġbomb": 3916,
      "fre": 3917,
      "unci": 3918,
      "ni": 3919,
      "ĠelÃ©ctr": 3920,
      "cÃ¡n": 3921,
      "ĠBre": 3922,
      "ĠLin": 3923,
      "ĠSam": 3924,
      "Ġdirigida": 3925,
      "ego": 3926,
      "rupo": 3927,
      "ĠCalifornia": 3928,
      "Ġincre": 3929,
      "ÃŃncipe": 3930,
      "ĠInter": 3931,
      "sh": 3932,
      "Ġaus": 3933,
      "esta": 3934,
      "ĠJesÃºs": 3935,
      "197": 3936,
      "ural": 3937,
      "40": 3938,
      "ĠeconomÃŃa": 3939,
      "ĠJe": 3940,
      "SegÃºn": 3941,
      "Ġfabric": 3942,
      "ĠprÃ³": 3943,
      "Ġnos": 3944,
      "ĠpequeÃ±os": 3945,
      "ĠindÃŃgen": 3946,
      "rac": 3947,
      "Ġmadera": 3948,
      "ĠPue": 3949,
      "Ġconocer": 3950,
      "lota": 3951,
      "Ġutilizado": 3952,
      "bos": 3953,
      "Ġparece": 3954,
      "Ġpers": 3955,
      "Ġfunciones": 3956,
      "Este": 3957,
      "ĠSeÃ±": 3958,
      "Ġdistintos": 3959,
      "burgo": 3960,
      "Ġvin": 3961,
      "gin": 3962,
      "ĠCastilla": 3963,
      "ĠBas": 3964,
      "Ġsum": 3965,
      "60": 3966,
      "anda": 3967,
      "Ġambi": 3968,
      "ĠIV": 3969,
      "ĠMunicip": 3970,
      "ense": 3971,
      "ĠalgÃºn": 3972,
      "Ġ80": 3973,
      "Ġaguas": 3974,
      "Ġpuerto": 3975,
      "izar": 3976,
      "ĠPosteriormente": 3977,
      "ĠPablo": 3978,
      "Ġhubo": 3979,
      "Ġalguna": 3980,
      "teras": 3981,
      "Ġescen": 3982,
      "Ġautoridades": 3983,
      "Ġcampeonato": 3984,
      "ĠprÃ¡ctica": 3985,
      "Ġescrito": 3986,
      "ĠtradiciÃ³n": 3987,
      "yas": 3988,
      "ĠMag": 3989,
      "Ġtiempos": 3990,
      "ĠHum": 3991,
      "Ġnumerosas": 3992,
      "Ġaso": 3993,
      "ilares": 3994,
      "ĠMinisterio": 3995,
      "grÃ¡fico": 3996,
      "Ġlog": 3997,
      "Ġtrib": 3998,
      "menta": 3999,
      "Ġparque": 4000,
      "Ġpalabra": 4001,
      "Ã©ndo": 4002,
      "ĠWil": 4003,
      "bil": 4004,
      "Ġllega": 4005,
      "lamento": 4006,
      "Ã³pez": 4007,
      "ĠTea": 4008,
      "Ġdibu": 4009,
      "Ġnoti": 4010,
      "lamen": 4011,
      "Ġamigo": 4012,
      "guez": 4013,
      "Ġprotes": 4014,
      "Ġedificios": 4015,
      "Ġps": 4016,
      "ram": 4017,
      "Ġescena": 4018,
      "traciÃ³n": 4019,
      "Ġtemplo": 4020,
      "ĠSocial": 4021,
      "Ġrealiza": 4022,
      "Ġbol": 4023,
      "ĠdeclarÃ³": 4024,
      "Ġcirc": 4025,
      "Ġ1960": 4026,
      "Ġchil": 4027,
      "ĠeconÃ³mica": 4028,
      "Ġ1991": 4029,
      "Ġacciones": 4030,
      "icidad": 4031,
      "cti": 4032,
      "rano": 4033,
      "Ġdebut": 4034,
      "etas": 4035,
      "hibi": 4036,
      "ĠartÃŃculo": 4037,
      "ĠDepor": 4038,
      "ĠWal": 4039,
      "olÃ³gica": 4040,
      "ĠMi": 4041,
      "menes": 4042,
      "ĠcontinuÃ³": 4043,
      "Ġunidad": 4044,
      "ĠAz": 4045,
      "Ġmens": 4046,
      "dicos": 4047,
      "Ġtes": 4048,
      "fonso": 4049,
      "Ġefectos": 4050,
      "izada": 4051,
      "orme": 4052,
      "adÃ©m": 4053,
      "ĠUr": 4054,
      "end": 4055,
      "ecÃŃa": 4056,
      "As": 4057,
      "Ġconsecuencia": 4058,
      "Ġfemen": 4059,
      "gip": 4060,
      "ĠEurope": 4061,
      "Ġ[[": 4062,
      "orÃŃas": 4063,
      "Ġproblema": 4064,
      "Ġdoble": 4065,
      "Ġestudiantes": 4066,
      "ilidades": 4067,
      "eso": 4068,
      "Ġmad": 4069,
      "Ġpiedra": 4070,
      "cciones": 4071,
      "ĠValle": 4072,
      "Ġcolum": 4073,
      "Ġvas": 4074,
      "Ġ/": 4075,
      "ĠjugÃ³": 4076,
      "Ġninguna": 4077,
      "Ġalum": 4078,
      "tric": 4079,
      "Ġinfan": 4080,
      "usa": 4081,
      "Ġcircu": 4082,
      "elipe": 4083,
      "Ġrecursos": 4084,
      "Ġevento": 4085,
      "Ġesfuer": 4086,
      "ĠalcanzÃ³": 4087,
      "Ġconec": 4088,
      "Ġrode": 4089,
      "licaciÃ³n": 4090,
      "Ġdocumen": 4091,
      "Ġislas": 4092,
      "vech": 4093,
      "ismos": 4094,
      "ĠvÃŃa": 4095,
      "ĠdecisiÃ³n": 4096,
      "sociaciÃ³n": 4097,
      "ĠrÃ¡pidamente": 4098,
      "Ġinternacionales": 4099,
      "ĠLÃ³pez": 4100,
      "Ġseguir": 4101,
      "Åį": 4102,
      "Ġautom": 4103,
      "Cuando": 4104,
      "Ġdefens": 4105,
      "ĠcrÃŃtica": 4106,
      "Ã©gimen": 4107,
      "andro": 4108,
      "Ã³nimo": 4109,
      "Ġcastillo": 4110,
      "Ġfuente": 4111,
      "ĠEstas": 4112,
      "Ġdoctor": 4113,
      "ĠFun": 4114,
      "Ġcreado": 4115,
      "Ġizquierda": 4116,
      "Ġdistintas": 4117,
      "ĠraÃŃ": 4118,
      "Ġvein": 4119,
      "puestas": 4120,
      "Ġobjeto": 4121,
      "Ġlibertad": 4122,
      "Ã³rdo": 4123,
      "Ġfamilias": 4124,
      "tancias": 4125,
      "Ġgrado": 4126,
      "ĠSen": 4127,
      "abel": 4128,
      "pÃ³": 4129,
      "Ġasen": 4130,
      "ĠIr": 4131,
      "Ġgradu": 4132,
      "uns": 4133,
      "ĠAmb": 4134,
      "Ġdan": 4135,
      "Ġfuturo": 4136,
      "Ġdeten": 4137,
      "ÃŃda": 4138,
      "Ġvie": 4139,
      "drÃŃa": 4140,
      "ĠBlan": 4141,
      "Ġfrancesa": 4142,
      "Ġcontiene": 4143,
      "aller": 4144,
      "Ġproyectos": 4145,
      "chi": 4146,
      "Ġmic": 4147,
      "Ġcompleto": 4148,
      "Ã¨": 4149,
      "Ġ1993": 4150,
      "ĠPatr": 4151,
      "Ġhistori": 4152,
      "Ã³nico": 4153,
      "ilio": 4154,
      "ÃŃr": 4155,
      "Ġacerca": 4156,
      "ĠdesempeÃ±": 4157,
      "ĠpÃ©r": 4158,
      "ĠBor": 4159,
      "ĠOc": 4160,
      "ld": 4161,
      "ĠAtl": 4162,
      "Ġartes": 4163,
      "puestos": 4164,
      "Ġtransporte": 4165,
      "ĠaÃ±ad": 4166,
      "Ġfuentes": 4167,
      "Ġdoc": 4168,
      "Ġdebu": 4169,
      "ĠGer": 4170,
      "Ġnaturaleza": 4171,
      "ĠpermitiÃ³": 4172,
      "Ġconvier": 4173,
      "Ġnie": 4174,
      "Ġemperador": 4175,
      "NA": 4176,
      "tiles": 4177,
      "tismo": 4178,
      "Ġbenefici": 4179,
      "Ġpelig": 4180,
      "izado": 4181,
      "Ġarque": 4182,
      "ĠMedi": 4183,
      "how": 4184,
      "mina": 4185,
      "Ġsens": 4186,
      "Ġgeo": 4187,
      "lada": 4188,
      "como": 4189,
      "ari": 4190,
      "Ġautores": 4191,
      "uÃ±a": 4192,
      "eca": 4193,
      "ĠkilÃ³metros": 4194,
      "ĠSil": 4195,
      "Ġprueba": 4196,
      "amento": 4197,
      "forme": 4198,
      "Ġhacen": 4199,
      "ocu": 4200,
      "Ġtitular": 4201,
      "Ġge": 4202,
      "ĠPuerto": 4203,
      "itÃ³": 4204,
      "Ġconcepto": 4205,
      "Ġaudi": 4206,
      "Ã¡genes": 4207,
      "Ġcaptur": 4208,
      "ĠSud": 4209,
      "Ġcomerci": 4210,
      "villa": 4211,
      "siones": 4212,
      "ĠrazÃ³n": 4213,
      "teros": 4214,
      "Ġsituado": 4215,
      "ther": 4216,
      "amblea": 4217,
      "Ġpruebas": 4218,
      "ĠFelipe": 4219,
      "Ġbastante": 4220,
      "25": 4221,
      "Ġvotos": 4222,
      "ĠPaul": 4223,
      "ĠestableciÃ³": 4224,
      "Ġdeben": 4225,
      "Ġoscu": 4226,
      "Ġcrisis": 4227,
      "Ġfig": 4228,
      "ÃŃtu": 4229,
      "int": 4230,
      "ĠcolecciÃ³n": 4231,
      "ĠmisiÃ³n": 4232,
      "Ġdirectamente": 4233,
      "ĠLor": 4234,
      "ĠRich": 4235,
      "ĠimÃ¡genes": 4236,
      "Ġexperiencia": 4237,
      "Ġsolu": 4238,
      "ĠComisiÃ³n": 4239,
      "Ġveci": 4240,
      "ĠdÃ©": 4241,
      "Ġindependiente": 4242,
      "ĠMos": 4243,
      "Ġsemanas": 4244,
      "Ġpresente": 4245,
      "ĠbritÃ¡nico": 4246,
      "osos": 4247,
      "ĠBra": 4248,
      "ĠcapitÃ¡n": 4249,
      "ĠVi": 4250,
      "ĠhistÃ³rico": 4251,
      "Ġasis": 4252,
      "ĠperdiÃ³": 4253,
      "ĠHab": 4254,
      "ĠRiv": 4255,
      "ĠtÃ©cnica": 4256,
      "Ġreino": 4257,
      "CA": 4258,
      "Ġaquellos": 4259,
      "Ġsiglos": 4260,
      "Ġinvas": 4261,
      "Ġdepen": 4262,
      "tividad": 4263,
      "ĠregresÃ³": 4264,
      "Ġnacionales": 4265,
      "ĠSecre": 4266,
      "Ġactriz": 4267,
      "Ġdecre": 4268,
      "Ex": 4269,
      "ĠBea": 4270,
      "eran": 4271,
      "Ġras": 4272,
      "Ġmm": 4273,
      "Ġprobablemente": 4274,
      "Ġsuelo": 4275,
      "reras": 4276,
      "tana": 4277,
      "Ã³rdoba": 4278,
      "vio": 4279,
      "ĠMen": 4280,
      "tinos": 4281,
      "rey": 4282,
      "Ġsup": 4283,
      "Ġfus": 4284,
      "Ġenfermedad": 4285,
      "tedral": 4286,
      "Ġdecide": 4287,
      "ĠVil": 4288,
      "Ġconstruir": 4289,
      "Ġfuego": 4290,
      "Ġtel": 4291,
      "Ġinteg": 4292,
      "Ġtorre": 4293,
      "we": 4294,
      "Ġsobrevi": 4295,
      "ĠOrden": 4296,
      "tn": 4297,
      "Ġpasa": 4298,
      "ĠPlan": 4299,
      "ivamente": 4300,
      "old": 4301,
      "Ġpermit": 4302,
      "Ġnada": 4303,
      "Ġrespuesta": 4304,
      "Ġqui": 4305,
      "erop": 4306,
      "To": 4307,
      "ters": 4308,
      "Ġreemplaz": 4309,
      "ĠAndr": 4310,
      "Ġderecha": 4311,
      "ford": 4312,
      "Car": 4313,
      "Ġconde": 4314,
      "Ġweb": 4315,
      "Ġcomenzaron": 4316,
      "Ġderrota": 4317,
      "Ã¡ticos": 4318,
      "Ġllegaron": 4319,
      "Ġtexto": 4320,
      "Ġ70": 4321,
      "Ġ1989": 4322,
      "Ġhabla": 4323,
      "ĠPh": 4324,
      "ĠSanto": 4325,
      "Ġamar": 4326,
      "ĠtÃŃp": 4327,
      "ind": 4328,
      "Ġargentino": 4329,
      "ĠseÃ±or": 4330,
      "ĠYa": 4331,
      "Ġasesina": 4332,
      "Ã¡lez": 4333,
      "Ġesos": 4334,
      "Ġusar": 4335,
      "Ġitaliano": 4336,
      "zan": 4337,
      "ĠpequeÃ±as": 4338,
      "Ġversiones": 4339,
      "Ġparro": 4340,
      "dentes": 4341,
      "Ġarri": 4342,
      "ĠÃ¡ra": 4343,
      "Ġexclus": 4344,
      "Ġcomercio": 4345,
      "ĠpÃ¡g": 4346,
      "Ġubicado": 4347,
      "Ġvolun": 4348,
      "Ġronda": 4349,
      "Ġhabitu": 4350,
      "Ġmismos": 4351,
      "Ġllama": 4352,
      "Ġproduce": 4353,
      "Ġindependencia": 4354,
      "ĠuniÃ³": 4355,
      "vaciÃ³n": 4356,
      "omen": 4357,
      "vista": 4358,
      "Ġsalida": 4359,
      "ĠcaÃ±": 4360,
      "Ġtriun": 4361,
      "ielo": 4362,
      "Ġdistancia": 4363,
      "Ġdeman": 4364,
      "Ma": 4365,
      "ĠBri": 4366,
      "Ġpregun": 4367,
      "Ġrevel": 4368,
      "ĠapariciÃ³n": 4369,
      "ĠFinalmente": 4370,
      "ĠBern": 4371,
      "Ġamigos": 4372,
      "Ġrecom": 4373,
      "Ġcasas": 4374,
      "itaria": 4375,
      "llas": 4376,
      "Ġconseguir": 4377,
      "Ġsonido": 4378,
      "Ġnegro": 4379,
      "Ġlarga": 4380,
      "cieron": 4381,
      "Ġrock": 4382,
      "tional": 4383,
      "Ġpronto": 4384,
      "alizada": 4385,
      "Ha": 4386,
      "Ġoperaciones": 4387,
      "ĠAlej": 4388,
      "ĠTeatro": 4389,
      "ĠCosta": 4390,
      "Ġ180": 4391,
      "Sin": 4392,
      "minos": 4393,
      "ĠFÃºtbol": 4394,
      "graf": 4395,
      "ĠVirgen": 4396,
      "ĠquÃ©": 4397,
      "Ġregiones": 4398,
      "ĠAsociaciÃ³n": 4399,
      "Ġorgan": 4400,
      "ĠArtes": 4401,
      "ĠQue": 4402,
      "amientos": 4403,
      "mporÃ¡n": 4404,
      "ĠJames": 4405,
      "landes": 4406,
      "ĠHay": 4407,
      "Ġnombres": 4408,
      "Ġhog": 4409,
      "Ġ$": 4410,
      "ald": 4411,
      "toral": 4412,
      "taban": 4413,
      "Ġjuven": 4414,
      "cionalmente": 4415,
      "Ġcadena": 4416,
      "ĠGonzÃ¡lez": 4417,
      "ĠnÃºcle": 4418,
      "istÃŃa": 4419,
      "Ġhermana": 4420,
      "Ġclases": 4421,
      "tamientos": 4422,
      "frica": 4423,
      "tienen": 4424,
      "digo": 4425,
      "80": 4426,
      "fil": 4427,
      "ĠelecciÃ³n": 4428,
      "Ġconflicto": 4429,
      "Ġsil": 4430,
      "Ġvariedad": 4431,
      "Ġcompletamente": 4432,
      "anÃŃa": 4433,
      "ĠBos": 4434,
      "pertura": 4435,
      "fac": 4436,
      "Ġproducir": 4437,
      "Ġcrea": 4438,
      "ĠValencia": 4439,
      "untamiento": 4440,
      "Ġadelante": 4441,
      "till": 4442,
      "Ġaprovech": 4443,
      "Ġingles": 4444,
      "amp": 4445,
      "ĠCivil": 4446,
      "ĠpublicaciÃ³n": 4447,
      "Ġregistr": 4448,
      "Ġabog": 4449,
      "Ġprensa": 4450,
      "ull": 4451,
      "ianos": 4452,
      "Ġopin": 4453,
      "iblioteca": 4454,
      "terrÃ¡n": 4455,
      "ĠÃ¡n": 4456,
      "ĠIndia": 4457,
      "ragÃ³n": 4458,
      "Ġinvers": 4459,
      "rans": 4460,
      "Ġtren": 4461,
      "Ġreconocimiento": 4462,
      "Ġpreten": 4463,
      "Ġ90": 4464,
      "ĠAustralia": 4465,
      "drÃŃ": 4466,
      "eda": 4467,
      "ĠWar": 4468,
      "AdemÃ¡s": 4469,
      "Ġformado": 4470,
      "ĠAna": 4471,
      "entales": 4472,
      "denes": 4473,
      "ordin": 4474,
      "Ġfondo": 4475,
      "way": 4476,
      "ĠAlfonso": 4477,
      "grado": 4478,
      "Ġconden": 4479,
      "ÃŃcol": 4480,
      "Ġtesti": 4481,
      "rus": 4482,
      "fra": 4483,
      "Ġconstruido": 4484,
      "Ġsuel": 4485,
      "inta": 4486,
      "Ġniveles": 4487,
      "Ã©rez": 4488,
      "ĠanÃ¡lisis": 4489,
      "umentos": 4490,
      "esÃŃa": 4491,
      "Ġdismin": 4492,
      "Ġtenido": 4493,
      "ĠCÃ³rdoba": 4494,
      "Ġpiezas": 4495,
      "ĠJack": 4496,
      "BC": 4497,
      "cimientos": 4498,
      "ĠacadÃ©m": 4499,
      "Ġtransmi": 4500,
      "ĠPortu": 4501,
      "Ġliteratura": 4502,
      "Ġalterna": 4503,
      "tron": 4504,
      "ÃŃdo": 4505,
      "ĠXVIII": 4506,
      "ĠtÃŃtulos": 4507,
      "Ġcosas": 4508,
      "Ġprecis": 4509,
      "Ġeventos": 4510,
      "Ġmotivo": 4511,
      "sula": 4512,
      "Ġcabal": 4513,
      "ĠSociedad": 4514,
      "Ġconocimiento": 4515,
      "ael": 4516,
      "Par": 4517,
      "Ġagu": 4518,
      "Ġcarta": 4519,
      "ĠfundaciÃ³n": 4520,
      "Ġexig": 4521,
      "Ġnecesidad": 4522,
      "adal": 4523,
      "rom": 4524,
      "Ġposibilidad": 4525,
      "Ġestados": 4526,
      "Ġregreso": 4527,
      "Ġpintura": 4528,
      "ulos": 4529,
      "Ġsug": 4530,
      "ĠJul": 4531,
      "ĠrÃ©gimen": 4532,
      "ĠactuaciÃ³n": 4533,
      "bito": 4534,
      "osofÃŃa": 4535,
      "Ġobjetos": 4536,
      "Ġliga": 4537,
      "ĠÃŃn": 4538,
      "Ġutilizar": 4539,
      "Ġagru": 4540,
      "Ġmateriales": 4541,
      "Ġrum": 4542,
      "Ġantiguos": 4543,
      "ĠtÃ©rminos": 4544,
      "Ġrendi": 4545,
      "Ġconcre": 4546,
      "Ġ%": 4547,
      "ĠCer": 4548,
      "Ġpaz": 4549,
      "ĠmÃ¡ximo": 4550,
      "Ġvac": 4551,
      "Ġfeder": 4552,
      "Ġalcan": 4553,
      "bilidad": 4554,
      "amil": 4555,
      "anismo": 4556,
      "ficul": 4557,
      "orld": 4558,
      "Ġameric": 4559,
      "ĠBla": 4560,
      "Ġproducto": 4561,
      "ombi": 4562,
      "Ġglo": 4563,
      "Ġarquitectura": 4564,
      "Ġdirigido": 4565,
      "ĠvÃŃcti": 4566,
      "fes": 4567,
      "Ġrele": 4568,
      "ĠrepresentaciÃ³n": 4569,
      "ĠVol": 4570,
      "Ġclima": 4571,
      "Ġpele": 4572,
      "Ġaustr": 4573,
      "rida": 4574,
      "ĠfundÃ³": 4575,
      "terios": 4576,
      "ĠoposiciÃ³n": 4577,
      "vado": 4578,
      "Ġencuentro": 4579,
      "Ġdom": 4580,
      "quer": 4581,
      "ot": 4582,
      "Ġreprodu": 4583,
      "ĠsÃŃn": 4584,
      "Ġpudi": 4585,
      "Ġpuso": 4586,
      "ĠcasÃ³": 4587,
      "cima": 4588,
      "metro": 4589,
      "Ġdificul": 4590,
      "Ġdemostr": 4591,
      "Ġconform": 4592,
      "Ã¡nica": 4593,
      "ny": 4594,
      "ĠMac": 4595,
      "deros": 4596,
      "cultad": 4597,
      "telig": 4598,
      "ponde": 4599,
      "Ġfis": 4600,
      "Ġcalles": 4601,
      "rente": 4602,
      "Ġreno": 4603,
      "Ġdetr": 4604,
      "Ġdiri": 4605,
      "dy": 4606,
      "ĠTen": 4607,
      "Ġjard": 4608,
      "Ġrefor": 4609,
      "ĠsecciÃ³n": 4610,
      "atem": 4611,
      "ĠclasificaciÃ³n": 4612,
      "drÃŃguez": 4613,
      "Ġdesem": 4614,
      "Ġmulti": 4615,
      "ĠfÃ¡cil": 4616,
      "gaciones": 4617,
      "itada": 4618,
      "Ġoccidental": 4619,
      "Ġescal": 4620,
      "Ã©di": 4621,
      "ĠMur": 4622,
      "Ġmodelos": 4623,
      "ĠAlgunos": 4624,
      "caron": 4625,
      "isto": 4626,
      "Ġfacil": 4627,
      "Ġvesti": 4628,
      "ĠdistribuciÃ³n": 4629,
      "ĠCanadÃ¡": 4630,
      "Ġdiscu": 4631,
      "ben": 4632,
      "ĠDÃŃa": 4633,
      "Ġinspir": 4634,
      "din": 4635,
      "anzas": 4636,
      "cionado": 4637,
      "ĠRobert": 4638,
      "Ã¡mica": 4639,
      "ĠÃģfrica": 4640,
      "ĠdebÃŃa": 4641,
      "Ġacce": 4642,
      "Ġesco": 4643,
      "Ġrespectivamente": 4644,
      "mu": 4645,
      "quina": 4646,
      "Ġsang": 4647,
      "apones": 4648,
      "Ġinscri": 4649,
      "Ġazul": 4650,
      "tres": 4651,
      "ĠhabrÃŃa": 4652,
      "vera": 4653,
      "Ġvalle": 4654,
      "americana": 4655,
      "ish": 4656,
      "ĠWa": 4657,
      "ords": 4658,
      "Ġintento": 4659,
      "Ġrecono": 4660,
      "Ġfic": 4661,
      "Ġpul": 4662,
      "itaciÃ³n": 4663,
      "ĠFernÃ¡ndez": 4664,
      "mato": 4665,
      "Ġresistencia": 4666,
      "pers": 4667,
      "Ġdiario": 4668,
      "asco": 4669,
      "Ġbuen": 4670,
      "zi": 4671,
      "gunas": 4672,
      "ĠLeg": 4673,
      "Ġexcep": 4674,
      "Ġsupon": 4675,
      "ĠentrÃ³": 4676,
      "ĠWe": 4677,
      "ĠdifÃŃcil": 4678,
      "carril": 4679,
      "Ġportu": 4680,
      "ĠRodrÃŃguez": 4681,
      "Ġtemperatura": 4682,
      "Ġnecesario": 4683,
      "Ġcaball": 4684,
      "ĠsiguiÃ³": 4685,
      "ĠencontrÃ³": 4686,
      "ĠMel": 4687,
      "ministr": 4688,
      "ĠDiego": 4689,
      "unal": 4690,
      "Ġ1985": 4691,
      "ĠGrupo": 4692,
      "Ġexitos": 4693,
      "Ġpeso": 4694,
      "ware": 4695,
      "Ġoficialmente": 4696,
      "Ġhumano": 4697,
      "Ġconstante": 4698,
      "Ġjapones": 4699,
      "Ġrecibir": 4700,
      "ĠYo": 4701,
      "Ġsovi": 4702,
      "ĠPaÃŃs": 4703,
      "Ġnave": 4704,
      "Ġhechos": 4705,
      "ĠprotecciÃ³n": 4706,
      "ĠcolaboraciÃ³n": 4707,
      "ĠpresiÃ³n": 4708,
      "ĠKar": 4709,
      "ĠEdi": 4710,
      "ecido": 4711,
      "ku": 4712,
      "icultura": 4713,
      "ĠDar": 4714,
      "Ġprom": 4715,
      "bus": 4716,
      "ep": 4717,
      "Ġfortal": 4718,
      "Ġexplo": 4719,
      "ral": 4720,
      "Ġveg": 4721,
      "ĠÃ¡m": 4722,
      "Ġfrontera": 4723,
      "Ġcontacto": 4724,
      "Ġimpuls": 4725,
      "riendo": 4726,
      "Ġhora": 4727,
      "Ġdisposi": 4728,
      "Ġcapaz": 4729,
      "unta": 4730,
      "Ġcompuesto": 4731,
      "Ġsituada": 4732,
      "fael": 4733,
      "Ġmag": 4734,
      "Ġ1986": 4735,
      "questa": 4736,
      "bes": 4737,
      "Ġtratamiento": 4738,
      "Ġnues": 4739,
      "ĠmÃºlti": 4740,
      "Ġ1987": 4741,
      "logÃŃa": 4742,
      "ĠConstituciÃ³n": 4743,
      "Ġ1950": 4744,
      "ĠCiencias": 4745,
      "Ġterritorios": 4746,
      "Ġbra": 4747,
      "ĠartÃŃculos": 4748,
      "tora": 4749,
      "my": 4750,
      "Ġtemporadas": 4751,
      "Ġasign": 4752,
      "pado": 4753,
      "ĠUru": 4754,
      "Ġpareja": 4755,
      "ĠDr": 4756,
      "Ġ1988": 4757,
      "Ġinvolu": 4758,
      "Ġcay": 4759,
      "Ġtitulado": 4760,
      "ĠCre": 4761,
      "Ġexplic": 4762,
      "ĠdirigiÃ³": 4763,
      "Ġvisto": 4764,
      "izan": 4765,
      "izÃ³": 4766,
      "ato": 4767,
      "ĠquÃŃm": 4768,
      "Ġfiguras": 4769,
      "Ro": 4770,
      "Ġdejar": 4771,
      "luy": 4772,
      "ĠgeneraciÃ³n": 4773,
      "Ġpropios": 4774,
      "ĠAp": 4775,
      "Ã©ro": 4776,
      "Ġcarb": 4777,
      "ĠXVI": 4778,
      "ĠeconÃ³mico": 4779,
      "leo": 4780,
      "Ġfrecuencia": 4781,
      "Ġavan": 4782,
      "Ġobispo": 4783,
      "Ġterreno": 4784,
      "Ġecu": 4785,
      "Ġpros": 4786,
      "Ġestablecer": 4787,
      "ĠGeorge": 4788,
      "Ġnueve": 4789,
      "ĠaÃ©": 4790,
      "ĠGab": 4791,
      "Ġexperim": 4792,
      "ĠcrÃŃticas": 4793,
      "TA": 4794,
      "Ġsome": 4795,
      "peraciÃ³n": 4796,
      "Ġuniversidad": 4797,
      "Ġvivo": 4798,
      "21": 4799,
      "Ġregis": 4800,
      "Ġafirma": 4801,
      "Ġadul": 4802,
      "ĠRadio": 4803,
      "Ġapor": 4804,
      "ĠNeg": 4805,
      "Ġoriginalmente": 4806,
      "Ã³sito": 4807,
      "FA": 4808,
      "ĠVie": 4809,
      "Ġcara": 4810,
      "Ġrefug": 4811,
      "Ġarti": 4812,
      "tesis": 4813,
      "edi": 4814,
      "ĠinstituciÃ³n": 4815,
      "Ġretra": 4816,
      "Ġanunci": 4817,
      "Ġinstituciones": 4818,
      "rana": 4819,
      "Ġciencia": 4820,
      "Ġcontenido": 4821,
      "rados": 4822,
      "ĠVan": 4823,
      "pin": 4824,
      "ĠAlex": 4825,
      "ĠtecnologÃŃa": 4826,
      "196": 4827,
      "idi": 4828,
      "Ġbreve": 4829,
      "ith": 4830,
      "ĠInde": 4831,
      "Ġdecor": 4832,
      "Ġayudar": 4833,
      "eropuerto": 4834,
      "Ġbloque": 4835,
      "Ġqueda": 4836,
      "ĠPlata": 4837,
      "ĠgestiÃ³n": 4838,
      "Ġaumento": 4839,
      "Ã¡fico": 4840,
      "Ġposteriores": 4841,
      "Ġcarga": 4842,
      "Ġpromedio": 4843,
      "rie": 4844,
      "Ġvuelve": 4845,
      "ardia": 4846,
      "ĠtrasladÃ³": 4847,
      "Ġdiferente": 4848,
      "Ġescla": 4849,
      "ĠLib": 4850,
      "oll": 4851,
      "ivas": 4852,
      "cidas": 4853,
      "olÃ³gicos": 4854,
      "lÃ¡": 4855,
      "Ġreina": 4856,
      "ĠJim": 4857,
      "Ġnega": 4858,
      "Ġtorno": 4859,
      "Ġmusicales": 4860,
      "ĠCha": 4861,
      "ms": 4862,
      "Ġapre": 4863,
      "ĠcontinuaciÃ³n": 4864,
      "Ġpuente": 4865,
      "Ġja": 4866,
      "Ġmarcha": 4867,
      "Ġcandidato": 4868,
      "Ġ1982": 4869,
      "Ġalcanzar": 4870,
      "caba": 4871,
      "Ġaprendi": 4872,
      "adura": 4873,
      "Ġgrave": 4874,
      "ĠextensiÃ³n": 4875,
      "Ġenfo": 4876,
      "logo": 4877,
      "Ġideas": 4878,
      "misiÃ³n": 4879,
      "Ġbio": 4880,
      "Ġfundamental": 4881,
      "Ġmenores": 4882,
      "viera": 4883,
      "lia": 4884,
      "Ġconvirti": 4885,
      "urÃ³": 4886,
      "ĠPon": 4887,
      "ĠPopular": 4888,
      "ise": 4889,
      "vidad": 4890,
      "tuales": 4891,
      "Ġcomandante": 4892,
      "olid": 4893,
      "ĠdetrÃ¡s": 4894,
      "para": 4895,
      "Ġcontaba": 4896,
      "Ġllegando": 4897,
      "Ġ1983": 4898,
      "ugh": 4899,
      "Ġusa": 4900,
      "ĠDepartamento": 4901,
      "ples": 4902,
      "Ġdando": 4903,
      "ĠEstÃ¡": 4904,
      "ĠmÃ¡xima": 4905,
      "Ġiba": 4906,
      "Ġsolamente": 4907,
      "Ġconocidos": 4908,
      "23": 4909,
      "Ġries": 4910,
      "ĠZa": 4911,
      "Ġsacerdo": 4912,
      "Lo": 4913,
      "ĠEcu": 4914,
      "Ġconvertirse": 4915,
      "Ġganado": 4916,
      "km": 4917,
      "Ġmemoria": 4918,
      "olina": 4919,
      "ĠPÃ©rez": 4920,
      "Ġentrenador": 4921,
      "Ġvideoj": 4922,
      "Ġadecu": 4923,
      "zada": 4924,
      "ĠSalvador": 4925,
      "Ġcomienzo": 4926,
      "Ġcree": 4927,
      "vol": 4928,
      "ĠEse": 4929,
      "ĠSha": 4930,
      "Ġ35": 4931,
      "ĠniÃ±o": 4932,
      "lÃŃn": 4933,
      "Ã§": 4934,
      "ES": 4935,
      "Ġprovincias": 4936,
      "cesa": 4937,
      "70": 4938,
      "Ac": 4939,
      "Ġestadounidenses": 4940,
      "ĠtÃ©cnicas": 4941,
      "Ġsimilares": 4942,
      "dro": 4943,
      "Ġmetal": 4944,
      "Ġmodific": 4945,
      "tones": 4946,
      "rer": 4947,
      "Ġcompor": 4948,
      "Ġdemas": 4949,
      "ueva": 4950,
      "ĠmÃ©todo": 4951,
      "Ġcentros": 4952,
      "Ġbasada": 4953,
      "ĠdesarrollÃ³": 4954,
      "ĠYou": 4955,
      "ĠMayor": 4956,
      "quez": 4957,
      "Ġgana": 4958,
      "Ġestadio": 4959,
      "diente": 4960,
      "ance": 4961,
      "Ġmagn": 4962,
      "ĠEspaÃ±ola": 4963,
      "Ġbasado": 4964,
      "ĠmÃŃn": 4965,
      "ĠEE": 4966,
      "ĠUruguay": 4967,
      "uno": 4968,
      "tidades": 4969,
      "Ġvilla": 4970,
      "ĠaviÃ³n": 4971,
      "Ġfer": 4972,
      "ĠdiÃ¡": 4973,
      "Ġponer": 4974,
      "Ġescrita": 4975,
      "ĠFederal": 4976,
      "teo": 4977,
      "emor": 4978,
      "emin": 4979,
      "Ġperfec": 4980,
      "Ġ1984": 4981,
      "ĠcapÃŃtu": 4982,
      "Man": 4983,
      "ek": 4984,
      "ĠSar": 4985,
      "ĠcontemporÃ¡n": 4986,
      "Ġconvierte": 4987,
      "ienda": 4988,
      "itz": 4989,
      "pes": 4990,
      "Ġinicialmente": 4991,
      "Ġprima": 4992,
      "dias": 4993,
      "Ã³logo": 4994,
      "BA": 4995,
      "Ġmate": 4996,
      "tades": 4997,
      "\";": 4998,
      "ĠInd": 4999,
      "Ġdescar": 5000,
      "enda": 5001,
      "Ġescribir": 5002,
      "Ġabsolu": 5003,
      "ĠMichael": 5004,
      "Ġcurso": 5005,
      "Ġcoin": 5006,
      "Aunque": 5007,
      "bieron": 5008,
      "Ġrecibe": 5009,
      "Ġcarretera": 5010,
      "Ġdesarrollar": 5011,
      "ĠhacÃŃa": 5012,
      "ĠEstad": 5013,
      "ĠJef": 5014,
      "ĠArte": 5015,
      "ield": 5016,
      "Ġexis": 5017,
      "mpo": 5018,
      "ĠLima": 5019,
      "idores": 5020,
      "Ġoportunidad": 5021,
      "Ġdipl": 5022,
      "itales": 5023,
      "ĠKo": 5024,
      "Ġtransform": 5025,
      "Ġbienes": 5026,
      "Si": 5027,
      "ĠColegio": 5028,
      "Ġdor": 5029,
      "ĠÃ³rdenes": 5030,
      "ĠBill": 5031,
      "Ġsala": 5032,
      "osas": 5033,
      "Ġmaestro": 5034,
      "ĠDebido": 5035,
      "tara": 5036,
      "jeron": 5037,
      "Ġescuelas": 5038,
      "sidad": 5039,
      "ĠdÃ©cadas": 5040,
      "ĠconstruyÃ³": 5041,
      "ĠAlberto": 5042,
      "ĠJunta": 5043,
      "Ġcolores": 5044,
      "wood": 5045,
      "ĠespectÃ¡": 5046,
      "Ġaco": 5047,
      "Ġofrece": 5048,
      "Ġinstalaciones": 5049,
      "24": 5050,
      "ĠSevilla": 5051,
      "ĠfÃ¡br": 5052,
      "hab": 5053,
      "igue": 5054,
      "ĠcÃ©l": 5055,
      "dol": 5056,
      "ux": 5057,
      "Ġmuseo": 5058,
      "ĠRafael": 5059,
      "Ġsuele": 5060,
      "Ġinicial": 5061,
      "ĠPortugal": 5062,
      "Ġalemanes": 5063,
      "ĠsÃŃmb": 5064,
      "Ġforman": 5065,
      "Ġvisita": 5066,
      "dada": 5067,
      "ĠAra": 5068,
      "Ġfundada": 5069,
      "ĠCÃ¡": 5070,
      "Ġ1979": 5071,
      "Ġexplor": 5072,
      "ello": 5073,
      "Ġtrabajadores": 5074,
      "ĠSue": 5075,
      "ĠCul": 5076,
      "ure": 5077,
      "ctores": 5078,
      "Ġnotable": 5079,
      "ĠTrans": 5080,
      "Ġcau": 5081,
      "Ġamplia": 5082,
      "Ġextremo": 5083,
      "Ġdescendi": 5084,
      "Ġportugu": 5085,
      "ĠElla": 5086,
      "tropol": 5087,
      "Ġamis": 5088,
      "Ġpreocu": 5089,
      "Ġleyes": 5090,
      "Ġestatu": 5091,
      "licaciones": 5092,
      "Ġlater": 5093,
      "ibilidad": 5094,
      "Ġlengu": 5095,
      "Po": 5096,
      "Ġcontrario": 5097,
      "Ġ1973": 5098,
      "Ġvuelo": 5099,
      "Ġ179": 5100,
      "his": 5101,
      "cy": 5102,
      "Ġfich": 5103,
      "Ġbur": 5104,
      "Ġreconstru": 5105,
      "ent": 5106,
      "ĠTV": 5107,
      "trÃŃa": 5108,
      "Ġformato": 5109,
      "Ġpuerta": 5110,
      "Pro": 5111,
      "ĠIsabel": 5112,
      "Ġ1976": 5113,
      "Ġambiente": 5114,
      "Ġdesarrollado": 5115,
      "xto": 5116,
      "ĠindÃŃgenas": 5117,
      "Ġmanda": 5118,
      "rero": 5119,
      "Ġalcalde": 5120,
      "didos": 5121,
      "ĠTim": 5122,
      "ÃŃri": 5123,
      "22": 5124,
      "Ã©ticos": 5125,
      "ĠActualmente": 5126,
      "Ġrep": 5127,
      "Ġguion": 5128,
      "jado": 5129,
      "ĠPac": 5130,
      "derÃŃa": 5131,
      "Ġmunicipios": 5132,
      "gÃ¼": 5133,
      "ĠsaliÃ³": 5134,
      "Ġmovimientos": 5135,
      "ĠJean": 5136,
      "ĠRock": 5137,
      "Ã¤": 5138,
      "Ġvalores": 5139,
      "ĠAmeric": 5140,
      "Ġses": 5141,
      "Ġprogres": 5142,
      "Ġcub": 5143,
      "Ġanteriormente": 5144,
      "ÃŃti": 5145,
      "Ġcierto": 5146,
      "ĠcomposiciÃ³n": 5147,
      "Ġfracas": 5148,
      "ĠDef": 5149,
      "Ġenten": 5150,
      "Ġperiodista": 5151,
      "ÃŃnsula": 5152,
      "ulares": 5153,
      "Ġacto": 5154,
      "tano": 5155,
      "Ġpremios": 5156,
      "tm": 5157,
      "Ġconciertos": 5158,
      "Ġdese": 5159,
      "Ġtotalmente": 5160,
      "Ġnota": 5161,
      "trop": 5162,
      "Ġgenerales": 5163,
      "cula": 5164,
      "alizar": 5165,
      "Ġcomerciales": 5166,
      "mann": 5167,
      "ĠPalacio": 5168,
      "Ġmusul": 5169,
      "asterio": 5170,
      "fan": 5171,
      "Ġbusca": 5172,
      "dice": 5173,
      "Ġrecl": 5174,
      "Ġensay": 5175,
      "Ġhospital": 5176,
      "ĠMartÃŃnez": 5177,
      "Ġconvers": 5178,
      "mula": 5179,
      "chada": 5180,
      "ĠVI": 5181,
      "ĠStar": 5182,
      "tios": 5183,
      "Ġdestacan": 5184,
      "Ġ1978": 5185,
      "Ġaviones": 5186,
      "taÃ±a": 5187,
      "Ġdetal": 5188,
      "ings": 5189,
      "aliza": 5190,
      "Ġproven": 5191,
      "Ġvecinos": 5192,
      "Ãºsque": 5193,
      "Ġrealizada": 5194,
      "Ġdestaca": 5195,
      "mens": 5196,
      "Ġ500": 5197,
      "ĠcÃ©lulas": 5198,
      "Ġ1940": 5199,
      "ĠOro": 5200,
      "ĠEduardo": 5201,
      "Ġescala": 5202,
      "ĠAsamblea": 5203,
      "ĠRic": 5204,
      "ĠpodÃŃan": 5205,
      "ciaciones": 5206,
      "Ġlogra": 5207,
      "ment": 5208,
      "hua": 5209,
      "Ġmedidas": 5210,
      "ĠSegu": 5211,
      "dri": 5212,
      "cialmente": 5213,
      "Ġbi": 5214,
      "ombre": 5215,
      "Ġcomunic": 5216,
      "Ġorganizaciones": 5217,
      "Ġataques": 5218,
      "ĠOfici": 5219,
      "Ġprac": 5220,
      "ĠNuevo": 5221,
      "ĠexposiciÃ³n": 5222,
      "ĠPaz": 5223,
      "ÃŃes": 5224,
      "Ġnaturales": 5225,
      "Ġproto": 5226,
      "Ġfundador": 5227,
      "Ġpopulares": 5228,
      "ĠmÃ©dico": 5229,
      "ulo": 5230,
      "Ġconsecu": 5231,
      "Ġ1930": 5232,
      "Ġteniendo": 5233,
      "Ġactiv": 5234,
      "Ġescenario": 5235,
      "ĠGuatem": 5236,
      "Ġtratado": 5237,
      "Ġfranceses": 5238,
      "Ġtranspor": 5239,
      "ĠcaÃŃda": 5240,
      "Le": 5241,
      "curs": 5242,
      "Ġubicada": 5243,
      "Ġquer": 5244,
      "Ġconsul": 5245,
      "Ġruta": 5246,
      "didas": 5247,
      "Ġamena": 5248,
      "Ġpalacio": 5249,
      "Ġsangre": 5250,
      "quiv": 5251,
      "Ġlab": 5252,
      "ĠÃģngeles": 5253,
      "Com": 5254,
      "ieza": 5255,
      "Ġbandas": 5256,
      "Ġcampos": 5257,
      "Ġaspecto": 5258,
      "ĠDerecho": 5259,
      "Ġdenominado": 5260,
      "ĠintenciÃ³n": 5261,
      "lico": 5262,
      "Ġsimplemente": 5263,
      "Ġdejando": 5264,
      "ivia": 5265,
      "ĠJuegos": 5266,
      "Ġ1975": 5267,
      "SS": 5268,
      "riz": 5269,
      "Ġdominio": 5270,
      "ĠTiene": 5271,
      "ĠoperaciÃ³n": 5272,
      "Ġresca": 5273,
      "Ġindica": 5274,
      "ĠIsrael": 5275,
      "Ġmucha": 5276,
      "Ġexpans": 5277,
      "iero": 5278,
      "ĠfirmÃ³": 5279,
      "Ġproducido": 5280,
      "ĠperiÃ³dico": 5281,
      "ĠPlaza": 5282,
      "Ġsabe": 5283,
      "Ġascenso": 5284,
      "cadas": 5285,
      "jor": 5286,
      "ĠmÃºltiples": 5287,
      "Ġtea": 5288,
      "ĠÃģl": 5289,
      "Ġexperimen": 5290,
      "gaciÃ³n": 5291,
      "cesis": 5292,
      "ĠaplicaciÃ³n": 5293,
      "Ġruso": 5294,
      "Ġrango": 5295,
      "mentaciÃ³n": 5296,
      "Ġhel": 5297,
      "ĠWorld": 5298,
      "ĠsufriÃ³": 5299,
      "Ġabund": 5300,
      "Ġimpues": 5301,
      "ĠordenÃ³": 5302,
      "ĠexpediciÃ³n": 5303,
      "Ġsola": 5304,
      "ĠSta": 5305,
      "Ġcompositor": 5306,
      "ĠCataluÃ±a": 5307,
      "Ġentrar": 5308,
      "Ġcarreras": 5309,
      "Ġterror": 5310,
      "Ġlider": 5311,
      "Ġidioma": 5312,
      "bios": 5313,
      "Ġaparecen": 5314,
      "Ġflor": 5315,
      "deras": 5316,
      "RA": 5317,
      "ĠRichard": 5318,
      "ann": 5319,
      "Ġrespe": 5320,
      "ÃŃsticas": 5321,
      "Ġcreada": 5322,
      "ĠprÃŃncipe": 5323,
      "ĠAllÃŃ": 5324,
      "Ġcapilla": 5325,
      "Ġllu": 5326,
      "ĠTar": 5327,
      "cientes": 5328,
      "Ġsuje": 5329,
      "lÃ³": 5330,
      "Ġcomunidades": 5331,
      "Ġcoronel": 5332,
      "mes": 5333,
      "cues": 5334,
      "Ġsalir": 5335,
      "Ġvivir": 5336,
      "illermo": 5337,
      "ĠbÃºsque": 5338,
      "ibe": 5339,
      "ĠHor": 5340,
      "ĠPeter": 5341,
      "ĠGuatemala": 5342,
      "Ġrecibido": 5343,
      "chez": 5344,
      "ĠcondiciÃ³n": 5345,
      "Ã£": 5346,
      "Ġtray": 5347,
      "bida": 5348,
      "Ġcomplejo": 5349,
      "ĠrÃŃos": 5350,
      "bÃ³": 5351,
      "ĠComitÃ©": 5352,
      "ĠcÃ¡mara": 5353,
      "Ġcompren": 5354,
      "Ġdeba": 5355,
      "ĠprisiÃ³n": 5356,
      "Ġoriental": 5357,
      "ijo": 5358,
      "ĠcambiÃ³": 5359,
      "bita": 5360,
      "gica": 5361,
      "Ġrepor": 5362,
      "Ġdios": 5363,
      "Ġremo": 5364,
      "cabez": 5365,
      "riel": 5366,
      "ĠHun": 5367,
      "ĠDaniel": 5368,
      "Ġconcierto": 5369,
      "35": 5370,
      "ĠHam": 5371,
      "Ġcompuesta": 5372,
      "umo": 5373,
      "Ġpais": 5374,
      "Ġcastel": 5375,
      "dÃ³n": 5376,
      "Ġaj": 5377,
      "Ġhumana": 5378,
      "cracia": 5379,
      "Ġpropuesta": 5380,
      "cher": 5381,
      "Ġeduca": 5382,
      "Ġ1981": 5383,
      "ĠNicol": 5384,
      "Ġintelig": 5385,
      "ĠAlejandro": 5386,
      "Ġgaran": 5387,
      "Ġpermitir": 5388,
      "Ġlograr": 5389,
      "Ġcontribu": 5390,
      "Ġcerem": 5391,
      "ĠÃīl": 5392,
      "TV": 5393,
      "Ġaconte": 5394,
      "ĠOn": 5395,
      "Ġperu": 5396,
      "Ġalemana": 5397,
      "Ġrepublic": 5398,
      "ĠllamÃ³": 5399,
      "ĠexpresiÃ³n": 5400,
      "estruc": 5401,
      "ĠestrenÃ³": 5402,
      "Ġresponsable": 5403,
      "ĠCuba": 5404,
      "Ġpoeta": 5405,
      "ernos": 5406,
      "adoras": 5407,
      "ĠpÃ©rdida": 5408,
      "oeste": 5409,
      "ĠCristo": 5410,
      "isco": 5411,
      "Ġfamoso": 5412,
      "Ġnaveg": 5413,
      "Ġfiesta": 5414,
      "ĠÃ¡mbito": 5415,
      "ĠAt": 5416,
      "erra": 5417,
      "ĠjudÃŃos": 5418,
      "Ġnacimiento": 5419,
      "tum": 5420,
      "aman": 5421,
      "Ġidentidad": 5422,
      "Ġproclam": 5423,
      "ĠgrabaciÃ³n": 5424,
      "Pa": 5425,
      "rump": 5426,
      "pr": 5427,
      "ĠocasiÃ³n": 5428,
      "onal": 5429,
      "Me": 5430,
      "Ġmedal": 5431,
      "omina": 5432,
      "Ġmane": 5433,
      "Ġcuesti": 5434,
      "cionar": 5435,
      "Ġ1974": 5436,
      "char": 5437,
      "ĠDra": 5438,
      "ĠvisiÃ³n": 5439,
      "Ġcontribuy": 5440,
      "ĠRevoluciÃ³n": 5441,
      "Ġincendi": 5442,
      "ĠDos": 5443,
      "inados": 5444,
      "ĠRecords": 5445,
      "inales": 5446,
      "Ġcrim": 5447,
      "Ġalber": 5448,
      "ĠreciÃ©n": 5449,
      "Ġhue": 5450,
      "Ġconsum": 5451,
      "Ġcomienzos": 5452,
      "ĠbritÃ¡nica": 5453,
      "Ġdemasiado": 5454,
      "Ġreca": 5455,
      "ĠÃ©ste": 5456,
      "Ġconsiderada": 5457,
      "ĠGuadal": 5458,
      "ĠEcon": 5459,
      "Ġcercan": 5460,
      "ĠMed": 5461,
      "Ġ1977": 5462,
      "ÃŃtica": 5463,
      "Ġll": 5464,
      "Ġgriego": 5465,
      "Ġcompleta": 5466,
      "Ġescas": 5467,
      "Ġais": 5468,
      "hÃŃa": 5469,
      "enÃ³men": 5470,
      "Ġcoci": 5471,
      "ĠinterpretÃ³": 5472,
      "alizÃ³": 5473,
      "Ġutilizando": 5474,
      "ĠTour": 5475,
      "Ġbe": 5476,
      "americano": 5477,
      "ĠKe": 5478,
      "ficaciones": 5479,
      "yen": 5480,
      "ĠcÃ¡l": 5481,
      "Ġverde": 5482,
      "ĠrÃ©c": 5483,
      "CO": 5484,
      "Ġapenas": 5485,
      "ĠCe": 5486,
      "Ġpasando": 5487,
      "ĠEducaciÃ³n": 5488,
      "amor": 5489,
      "ashington": 5490,
      "Ġdependi": 5491,
      "Ġpropias": 5492,
      "its": 5493,
      "Ġadmi": 5494,
      "pul": 5495,
      "Ġintercam": 5496,
      "azÃ³n": 5497,
      "Ġrenun": 5498,
      "ĠresultÃ³": 5499,
      "Ġfol": 5500,
      "ĠagrÃŃcol": 5501,
      "turi": 5502,
      "Ġdieron": 5503,
      "Ġplane": 5504,
      "Ġdebajo": 5505,
      "ĠÃģlvar": 5506,
      "ĠWin": 5507,
      "entro": 5508,
      "ĠFederaciÃ³n": 5509,
      "Ġvice": 5510,
      "ĠDomingo": 5511,
      "ics": 5512,
      "Ġdescubier": 5513,
      "Ġpapa": 5514,
      "Ġ1968": 5515,
      "ĠahÃŃ": 5516,
      "ville": 5517,
      "dalu": 5518,
      "gre": 5519,
      "Ġincluido": 5520,
      "Ġclave": 5521,
      "Ġprov": 5522,
      "Ġdespe": 5523,
      "Ġang": 5524,
      "uca": 5525,
      "cran": 5526,
      "ĠhÃ¡": 5527,
      "ĠRed": 5528,
      "ony": 5529,
      "Ġrepe": 5530,
      "IA": 5531,
      "drÃ¡": 5532,
      "Ġpuertas": 5533,
      "ĠSebas": 5534,
      "Ãºr": 5535,
      "Ġger": 5536,
      "ecieron": 5537,
      "Ġrec": 5538,
      "ĠCÃ¡mara": 5539,
      "inalmente": 5540,
      "bras": 5541,
      "195": 5542,
      "Ġrojo": 5543,
      "Ġprol": 5544,
      "ĠBus": 5545,
      "ĠnÃºcleo": 5546,
      "Ġarquitecto": 5547,
      "Ġ1945": 5548,
      "Ġclubes": 5549,
      "ĠnÃºmeros": 5550,
      "Ġdirecto": 5551,
      "Ġalimen": 5552,
      "ĠXVII": 5553,
      "Ġdestacar": 5554,
      "45": 5555,
      "Ġprevi": 5556,
      "Ġnucle": 5557,
      "ĠAsia": 5558,
      "todos": 5559,
      "Ġrefiere": 5560,
      "Ã±ana": 5561,
      "Ġfuertes": 5562,
      "Ġcircuns": 5563,
      "ĠSub": 5564,
      "tein": 5565,
      "Ġciudadanos": 5566,
      "ombr": 5567,
      "vesti": 5568,
      "lex": 5569,
      "Ġfas": 5570,
      "inada": 5571,
      "Ġbuscar": 5572,
      "Mu": 5573,
      "Ca": 5574,
      "Ġconsiste": 5575,
      "Ġestren": 5576,
      "Ġcompu": 5577,
      "tropolit": 5578,
      "ĠpermaneciÃ³": 5579,
      "ĠinterpretaciÃ³n": 5580,
      "valu": 5581,
      "Ġmarco": 5582,
      "Ġprocesos": 5583,
      "Ġaspectos": 5584,
      "ĠaquÃŃ": 5585,
      "mith": 5586,
      "ĠÃºltimas": 5587,
      "Ġhal": 5588,
      "Ġdesplaz": 5589,
      "Ġusando": 5590,
      "ĠLea": 5591,
      "Ġencabez": 5592,
      "reo": 5593,
      "ĠAragÃ³n": 5594,
      "ille": 5595,
      "Ġencima": 5596,
      "ĠStu": 5597,
      "ĠProvincia": 5598,
      "ĠfenÃ³men": 5599,
      "Ġlago": 5600,
      "kin": 5601,
      "Ġhubi": 5602,
      "Ġ1936": 5603,
      "ĠSierra": 5604,
      "Ġcritic": 5605,
      "ĠbÃºsqueda": 5606,
      "Ġtribu": 5607,
      "Ġdestino": 5608,
      "Ġautoridad": 5609,
      "Co": 5610,
      "Ġasesinato": 5611,
      "ĠEmp": 5612,
      "cuencias": 5613,
      "acas": 5614,
      "ĠreuniÃ³n": 5615,
      "ĠFrank": 5616,
      "Ġcompetencia": 5617,
      "Ġescol": 5618,
      "Ġplante": 5619,
      "ingÃ¼": 5620,
      "Ġepisodios": 5621,
      "Ġpiloto": 5622,
      "demos": 5623,
      "Ġimpos": 5624,
      "Ġ1972": 5625,
      "Ġusado": 5626,
      "Ġfamiliar": 5627,
      "Ġcargos": 5628,
      "ife": 5629,
      "Ġtrayec": 5630,
      "ĠGuillermo": 5631,
      "28": 5632,
      "ĠTorre": 5633,
      "26": 5634,
      "ĠSÃ¡n": 5635,
      "Ġros": 5636,
      "tim": 5637,
      "Ġocupar": 5638,
      "ĠenviÃ³": 5639,
      "27": 5640,
      "Ġperteneciente": 5641,
      "Ġreda": 5642,
      "ĠCharles": 5643,
      "cus": 5644,
      "ĠHan": 5645,
      "Ġpresidencia": 5646,
      "Ġcm": 5647,
      "Ġestrellas": 5648,
      "Ġespeciales": 5649,
      "Sus": 5650,
      "ĠMartin": 5651,
      "ĠÃºnicamente": 5652,
      "ĠTrab": 5653,
      "Ġestim": 5654,
      "Ġpublicada": 5655,
      "ĠtÃ©cnico": 5656,
      "yendo": 5657,
      "Ġestrella": 5658,
      "ĠfÃŃsica": 5659,
      "Ġfirma": 5660,
      "Ġesas": 5661,
      "ĠHern": 5662,
      "Ġindustrial": 5663,
      "Ġrecuer": 5664,
      "Ġtro": 5665,
      "ĠMedia": 5666,
      "ĠconociÃ³": 5667,
      "Ġprofundi": 5668,
      "Ġestudiar": 5669,
      "Ġalmacen": 5670,
      "capa": 5671,
      "Ġinterac": 5672,
      "Ġpoblaciones": 5673,
      "ĠSovi": 5674,
      "Ġase": 5675,
      "Ã¡ticas": 5676,
      "ĠAven": 5677,
      "Ġembaj": 5678,
      "Ġduque": 5679,
      "fos": 5680,
      "ĠAndrÃ©s": 5681,
      "ĠLou": 5682,
      "orio": 5683,
      "Ġdue": 5684,
      "Ġaut": 5685,
      "Ġdura": 5686,
      "mÃ¡ticas": 5687,
      "Ġclaro": 5688,
      "Ġvon": 5689,
      "omÃ©": 5690,
      "ĠTorn": 5691,
      "dea": 5692,
      "Ġprision": 5693,
      "Ġala": 5694,
      "Ġlenguaje": 5695,
      "ĠAir": 5696,
      "emas": 5697,
      "Ġaves": 5698,
      "Ġ45": 5699,
      "Ġhomen": 5700,
      "Ġletras": 5701,
      "Ġdiscos": 5702,
      "Ġinven": 5703,
      "ĠAf": 5704,
      "ĠHel": 5705,
      "Ġ1969": 5706,
      "lesias": 5707,
      "ĠPen": 5708,
      "ĠvehÃŃculos": 5709,
      "ĠvÃŃdeo": 5710,
      "ĠVicente": 5711,
      "Ġencontrado": 5712,
      "ĠCD": 5713,
      "mÃ¡tico": 5714,
      "Ãł": 5715,
      "ĠFacultad": 5716,
      "Ġancho": 5717,
      "vie": 5718,
      "Ġmexicano": 5719,
      "\"\".": 5720,
      "aras": 5721,
      "zÃ³n": 5722,
      "Ġemo": 5723,
      "Ġaquella": 5724,
      "Ġculturales": 5725,
      "wer": 5726,
      "29": 5727,
      "Ġconvertido": 5728,
      "Ġutilizan": 5729,
      "up": 5730,
      "ĠAustria": 5731,
      "Ġmantiene": 5732,
      "Ġintelec": 5733,
      "AR": 5734,
      "Ġincon": 5735,
      "Ġcorriente": 5736,
      "elas": 5737,
      "ania": 5738,
      "elos": 5739,
      "ĠSÃ¡nchez": 5740,
      "Ġconcluy": 5741,
      "ĠRoy": 5742,
      "ĠBanco": 5743,
      "Ġcopias": 5744,
      "ĠinvasiÃ³n": 5745,
      "ĠJusticia": 5746,
      "ĠfalleciÃ³": 5747,
      "Ġpresentan": 5748,
      "ĠAug": 5749,
      "Ġhem": 5750,
      "Ġexpuls": 5751,
      "Ġpropiedades": 5752,
      "Ġaccidente": 5753,
      "Ġmateria": 5754,
      "Ġatribu": 5755,
      "tte": 5756,
      "ĠEra": 5757,
      "amb": 5758,
      "ĠJulio": 5759,
      "Ġsecretario": 5760,
      "Ġ1920": 5761,
      "ĠAnti": 5762,
      "ĠEcuador": 5763,
      "Ġnovel": 5764,
      "Ã£o": 5765,
      "ĠWashington": 5766,
      "gados": 5767,
      "Ġdeleg": 5768,
      "ĠSebasti": 5769,
      "Ã¡ntico": 5770,
      "ĠcÃ³m": 5771,
      "Ġcierta": 5772,
      "Ġbombar": 5773,
      "iki": 5774,
      "Ġelig": 5775,
      "Ġcompa": 5776,
      "Ġllevado": 5777,
      "ides": 5778,
      "Ne": 5779,
      "ĠreligiÃ³n": 5780,
      "ĠpÃºblicos": 5781,
      "ĠTal": 5782,
      "bado": 5783,
      "Ġviolencia": 5784,
      "ĠRamÃ³n": 5785,
      "Ġabierto": 5786,
      "ecciÃ³n": 5787,
      "Ġdocumentos": 5788,
      "Ġ1967": 5789,
      "ĠPacÃŃfico": 5790,
      "ĠespecÃŃf": 5791,
      "ĠallÃ¡": 5792,
      "tificaciÃ³n": 5793,
      "Ġescudo": 5794,
      "ĠcatÃ³lica": 5795,
      "rimiento": 5796,
      "ĠThomas": 5797,
      "ĠpenÃŃnsula": 5798,
      "piri": 5799,
      "Ġpoderes": 5800,
      "Ġcomunes": 5801,
      "Ġpintor": 5802,
      "Ġlenguas": 5803,
      "ierÃŃa": 5804,
      "Ġfundado": 5805,
      "ĠFundaciÃ³n": 5806,
      "ĠasociaciÃ³n": 5807,
      "Ġcuarta": 5808,
      "ĠTrib": 5809,
      "dencias": 5810,
      "Ġcorto": 5811,
      "Ġtradicionales": 5812,
      "Ġanual": 5813,
      "ĠBerlÃŃn": 5814,
      "ĠexpansiÃ³n": 5815,
      "mal": 5816,
      "Ġinvierno": 5817,
      "ĠOtros": 5818,
      "Ġterminar": 5819,
      "Ġaltas": 5820,
      "Ġpista": 5821,
      "olÃ³gicas": 5822,
      "Ġciclo": 5823,
      "Ġpractic": 5824,
      "ÃŃsticos": 5825,
      "90": 5826,
      "Ġredes": 5827,
      "ĠHistoria": 5828,
      "piraciÃ³n": 5829,
      "Ġhuman": 5830,
      "Ġinmig": 5831,
      "ĠPin": 5832,
      "Ġdefen": 5833,
      "iciones": 5834,
      "ĠlÃŃmite": 5835,
      "Ġhere": 5836,
      "Ġpasaj": 5837,
      "Ġsobr": 5838,
      "Ġbajas": 5839,
      "ĠMusic": 5840,
      "ĠcompaÃ±eros": 5841,
      "Ġescenas": 5842,
      "ĠÂ«\"": 5843,
      "Ġciviles": 5844,
      "grama": 5845,
      "jÃ³": 5846,
      "presiÃ³n": 5847,
      "anes": 5848,
      "vido": 5849,
      "Ġtaller": 5850,
      "Ġenorme": 5851,
      "Ġpsic": 5852,
      "Ġconex": 5853,
      "Ġdescribe": 5854,
      "ella": 5855,
      "Ġelemento": 5856,
      "Ġbras": 5857,
      "ĠPri": 5858,
      "ĠGrande": 5859,
      "domin": 5860,
      "ĠcÃ¡n": 5861,
      "ĠuniÃ³n": 5862,
      "ĠcorazÃ³n": 5863,
      "Ġimple": 5864,
      "Ġasal": 5865,
      "Ġtelevis": 5866,
      "dic": 5867,
      "Ġreforma": 5868,
      "ĠraÃŃz": 5869,
      "Ġcambiar": 5870,
      "Ġambien": 5871,
      "Ġdesconoci": 5872,
      "egas": 5873,
      "Ġventas": 5874,
      "Ġ1971": 5875,
      "Ġsello": 5876,
      "Ġriesgo": 5877,
      "ĠSupre": 5878,
      "ĠDistr": 5879,
      "ĠcÃ³digo": 5880,
      "st": 5881,
      "Ġentrevista": 5882,
      "ĠCorte": 5883,
      "Ġnatal": 5884,
      "Ġreconocido": 5885,
      "ĠEdad": 5886,
      "ĠdebutÃ³": 5887,
      "ĠCO": 5888,
      "Ġbril": 5889,
      "Ġderiv": 5890,
      "ĠbritÃ¡nicos": 5891,
      "Ġmicro": 5892,
      "ĠSco": 5893,
      "Ġcolombi": 5894,
      "ĠTro": 5895,
      "Ġflota": 5896,
      "hat": 5897,
      "Ġbarco": 5898,
      "ĠDemo": 5899,
      "Ġdiferencias": 5900,
      "Ġcorona": 5901,
      "Ġdetec": 5902,
      "Ġx": 5903,
      "eles": 5904,
      "Ġentorno": 5905,
      "ĠEgip": 5906,
      "ĠVar": 5907,
      "Ġhaya": 5908,
      "ĠpresentaciÃ³n": 5909,
      "ĠMunicipal": 5910,
      "ĠestÃ¡ndar": 5911,
      "Ġtrabajando": 5912,
      "ciar": 5913,
      "yeron": 5914,
      "ĠGil": 5915,
      "ĠEstadio": 5916,
      "fas": 5917,
      "Ġsenti": 5918,
      "Ã³mez": 5919,
      "Ġreinado": 5920,
      "cÃ³n": 5921,
      "Ġpis": 5922,
      "Ġ300": 5923,
      "Ġperder": 5924,
      "Ġdoce": 5925,
      "Ġseries": 5926,
      "ĠGol": 5927,
      "ĠsÃ©": 5928,
      "Ġsuelen": 5929,
      "Ġextin": 5930,
      "uelta": 5931,
      "Ã¡nico": 5932,
      "gano": 5933,
      "Ġcombusti": 5934,
      "Ġconquis": 5935,
      "ĠGro": 5936,
      "Ġcalific": 5937,
      "Ġadministr": 5938,
      "Ġequiv": 5939,
      "Ġprotagonista": 5940,
      "ĠAsimismo": 5941,
      "Ġdep": 5942,
      "ĠSim": 5943,
      "ĠPi": 5944,
      "Ġguitarra": 5945,
      "Ġdeja": 5946,
      "ĠconvirtiÃ©ndose": 5947,
      "Ġplanes": 5948,
      "ĠestudiÃ³": 5949,
      "illos": 5950,
      "istÃ¡n": 5951,
      "cles": 5952,
      ".)": 5953,
      "ua": 5954,
      "Ġdiplom": 5955,
      "ĠBr": 5956,
      "ĠCatÃ³": 5957,
      "Ġagreg": 5958,
      "ĠSab": 5959,
      "ĠocupÃ³": 5960,
      "ave": 5961,
      "Ġfutbol": 5962,
      "Ġ150": 5963,
      "Ġconcurso": 5964,
      "ĠAma": 5965,
      "Ã±ez": 5966,
      "Ġreclam": 5967,
      "Ġcoron": 5968,
      "Ġusuarios": 5969,
      "Ġconserva": 5970,
      "Ġsalv": 5971,
      "Ġrue": 5972,
      "Ġmuerto": 5973,
      "ass": 5974,
      "ĠNaciones": 5975,
      "Ġmascul": 5976,
      "raz": 5977,
      "Ġalter": 5978,
      "Ġdiputado": 5979,
      "Ġpiel": 5980,
      "Ġcontexto": 5981,
      "Ġactos": 5982,
      "Ġobjetivos": 5983,
      "ramien": 5984,
      "Ġsosten": 5985,
      "undo": 5986,
      "ĠmaÃ±ana": 5987,
      "ĠCorea": 5988,
      "Ġsuficiente": 5989,
      "Ġmeta": 5990,
      "tiende": 5991,
      "ĠÃ¡rboles": 5992,
      "ĠLan": 5993,
      "Ġposiciones": 5994,
      "ĠquiÃ©n": 5995,
      "ronce": 5996,
      "ĠEsco": 5997,
      "Ġapertura": 5998,
      "Ġregresar": 5999,
      "Ġnoble": 6000,
      "Ġhomenaje": 6001,
      "ĠpodrÃŃan": 6002,
      "Ġ178": 6003,
      "75": 6004,
      "Ġmezcla": 6005,
      "ĠSuperior": 6006,
      "espe": 6007,
      "Ġfondos": 6008,
      "Ġurban": 6009,
      "ĠevoluciÃ³n": 6010,
      "tistas": 6011,
      "Ġentrega": 6012,
      "quiera": 6013,
      "ĠSoviÃ©tica": 6014,
      "Ġreales": 6015,
      "Ġvolumen": 6016,
      "Ġmasa": 6017,
      "Ġconquista": 6018,
      "Ġagricultura": 6019,
      "36": 6020,
      "olver": 6021,
      "Ġpotencia": 6022,
      "Ġcho": 6023,
      "ĠDirector": 6024,
      "ĠQuin": 6025,
      "Ġeuropeos": 6026,
      "ĠCity": 6027,
      "abora": 6028,
      "ĠRica": 6029,
      "Ġestaciones": 6030,
      "uth": 6031,
      "Ġrit": 6032,
      "net": 6033,
      "ĠParque": 6034,
      "ĠLeon": 6035,
      "ĠEgipto": 6036,
      "Ã³rmula": 6037,
      "Ġestad": 6038,
      "Ġfachada": 6039,
      "paÃ±ÃŃa": 6040,
      "Ġ1964": 6041,
      "ĠrÃ©cord": 6042,
      "Ġprofesionales": 6043,
      "ĠduraciÃ³n": 6044,
      "Ġlin": 6045,
      "biendo": 6046,
      "ÃŃritu": 6047,
      "inastÃŃa": 6048,
      "Ġmatar": 6049,
      "Ġtextos": 6050,
      "ike": 6051,
      "ĠMundo": 6052,
      "Ġmuertos": 6053,
      "ĠhistÃ³rica": 6054,
      "ĠcrÃŃticos": 6055,
      "Ġhojas": 6056,
      "ĠfilosofÃŃa": 6057,
      "ĠAut": 6058,
      "itarios": 6059,
      "Ġsexual": 6060,
      "Ġocul": 6061,
      "tipo": 6062,
      "Ġsectores": 6063,
      "ĠÃ¡rabe": 6064,
      "Ġespacios": 6065,
      "ĠopiniÃ³n": 6066,
      "ficamente": 6067,
      "Ã¡ndole": 6068,
      "iendas": 6069,
      "Ġdia": 6070,
      "Ġmejorar": 6071,
      "Ġ1939": 6072,
      "grÃŃa": 6073,
      "Ġdenominada": 6074,
      "ĠDÃŃaz": 6075,
      "Ġpies": 6076,
      "quÃŃn": 6077,
      "Ġconsumo": 6078,
      "Ġsaber": 6079,
      "Ġlicencia": 6080,
      "ude": 6081,
      "ĠBolivia": 6082,
      "Ġexpon": 6083,
      "Ġmoderna": 6084,
      "Ġinfluy": 6085,
      "ĠGÃ³mez": 6086,
      "Ġurb": 6087,
      "itaciones": 6088,
      "Ġfir": 6089,
      "tidas": 6090,
      "Ġparticipa": 6091,
      "Do": 6092,
      "ĠCine": 6093,
      "Ġpobre": 6094,
      "Ġnecesita": 6095,
      "Ġarco": 6096,
      "well": 6097,
      "ĠMinistro": 6098,
      "Ġhos": 6099,
      "Ġestrateg": 6100,
      "Ġexac": 6101,
      "ĠquerÃŃa": 6102,
      "Ġmismas": 6103,
      "Ġarres": 6104,
      "33": 6105,
      "Ġherramien": 6106,
      "ĠatrÃ¡s": 6107,
      "ĠprÃ¡cticamente": 6108,
      "Ġminis": 6109,
      "Ġfel": 6110,
      "ĠAh": 6111,
      "ĠpromociÃ³n": 6112,
      "arla": 6113,
      "Ġrazones": 6114,
      "lesc": 6115,
      "Ġvino": 6116,
      "Ġenviado": 6117,
      "landa": 6118,
      "NE": 6119,
      "Ġ1966": 6120,
      "ĠInvesti": 6121,
      "Ġtrono": 6122,
      "Ġ#": 6123,
      "48": 6124,
      "ajos": 6125,
      "Ġfederal": 6126,
      "Ġinmediatamente": 6127,
      "Ġbosque": 6128,
      "ĠTorneo": 6129,
      "ĠDeportivo": 6130,
      "Ġascendi": 6131,
      "IC": 6132,
      "Ġdisponible": 6133,
      "ĠBon": 6134,
      "ĠreacciÃ³n": 6135,
      "tuvieron": 6136,
      "ĠcÃ©": 6137,
      "Ġofer": 6138,
      "Ġinicios": 6139,
      "omos": 6140,
      "zob": 6141,
      "Ġlegisla": 6142,
      ",\"": 6143,
      "tone": 6144,
      "ĠRen": 6145,
      "Ġplano": 6146,
      "ĠTex": 6147,
      "Ġobserva": 6148,
      "cionados": 6149,
      "ĠCada": 6150,
      "imos": 6151,
      "ĠEje": 6152,
      "imas": 6153,
      "Ġ1965": 6154,
      "Ġsober": 6155,
      "ĠpÃºblicas": 6156,
      "Ġconsiderable": 6157,
      "Ġojos": 6158,
      "ĠcompeticiÃ³n": 6159,
      "Ġvocal": 6160,
      "ĠGeorg": 6161,
      "Ġfrag": 6162,
      "Ġpocas": 6163,
      "Ġferrocarril": 6164,
      "amÃ¡": 6165,
      "Ġjuicio": 6166,
      "ftware": 6167,
      "eco": 6168,
      "ĠPolonia": 6169,
      "Ġpuestos": 6170,
      "ĠlÃŃderes": 6171,
      "quilib": 6172,
      "Ġllamados": 6173,
      "ĠUS": 6174,
      "Ġjorn": 6175,
      "inÃ³": 6176,
      "Ġrelacionados": 6177,
      "Ġneo": 6178,
      "uelos": 6179,
      "tag": 6180,
      "Ġllevaron": 6181,
      "Ġformada": 6182,
      "tadura": 6183,
      "ander": 6184,
      "Ġjuntos": 6185,
      "Ġrevolucion": 6186,
      "Ġ1944": 6187,
      "Ġhistorias": 6188,
      "teles": 6189,
      "Ġtermina": 6190,
      "Ġbases": 6191,
      "Ġdecreto": 6192,
      "unda": 6193,
      "Ġactores": 6194,
      "Ġresidencia": 6195,
      "ĠDipu": 6196,
      "Ġcinemato": 6197,
      "ess": 6198,
      "Ġdirecta": 6199,
      "uta": 6200,
      "Ġplaneta": 6201,
      "ĠviviÃ³": 6202,
      "Ġhogar": 6203,
      "ĠpoesÃŃa": 6204,
      "Ġconsta": 6205,
      "anti": 6206,
      "Ġauton": 6207,
      "ray": 6208,
      "tch": 6209,
      "Ġtej": 6210,
      "ticiÃ³n": 6211,
      "gadas": 6212,
      "arquÃŃa": 6213,
      "ĠdisputÃ³": 6214,
      "ĠserÃŃan": 6215,
      "ĠAll": 6216,
      "ant": 6217,
      "ĠrevoluciÃ³n": 6218,
      "ĠcontÃ³": 6219,
      "ĠincluyÃ³": 6220,
      "Ġsemif": 6221,
      "Ġenemigo": 6222,
      "rupciÃ³n": 6223,
      "Ġopon": 6224,
      "ĠcaracterÃŃstica": 6225,
      "Ġace": 6226,
      "ĠintentÃ³": 6227,
      "Ġmig": 6228,
      "Ġromano": 6229,
      "iares": 6230,
      "Ġpresentar": 6231,
      "ĠOlÃŃ": 6232,
      "ĠAdministra": 6233,
      "Ġcumplir": 6234,
      "ieren": 6235,
      "ĠpropÃ³sito": 6236,
      "Ġescapar": 6237,
      "ĠLar": 6238,
      "ĠÃĵ": 6239,
      "ĠJose": 6240,
      "Qu": 6241,
      "Ġhablar": 6242,
      "ganizaciÃ³n": 6243,
      "Ġpier": 6244,
      "ĠTre": 6245,
      "ĠmÃ©todos": 6246,
      "Ġestructuras": 6247,
      "ponÃ©s": 6248,
      "Ġintegra": 6249,
      "ĠHon": 6250,
      "ĠVictoria": 6251,
      "ĠsirviÃ³": 6252,
      "Ġcabec": 6253,
      "ĠNi": 6254,
      "Ġcatedral": 6255,
      "ĠFar": 6256,
      "Ġmotores": 6257,
      "ĠOlÃŃmp": 6258,
      "arÃŃan": 6259,
      "grafo": 6260,
      "oras": 6261,
      "Ġmonasterio": 6262,
      "Ġquiere": 6263,
      "Ġexplos": 6264,
      "ĠmÃºsicos": 6265,
      "ĠdenominaciÃ³n": 6266,
      "Ġantiguas": 6267,
      "Ġaudiencia": 6268,
      "burg": 6269,
      "ĠHospital": 6270,
      "ĠAyuntamiento": 6271,
      "tumb": 6272,
      "Ġbarcos": 6273,
      "ĠDoctor": 6274,
      "mol": 6275,
      "Ġcorta": 6276,
      "Ġconstruida": 6277,
      "win": 6278,
      "Ġcontar": 6279,
      "Ġentidad": 6280,
      "Ġoriginales": 6281,
      "Jo": 6282,
      "ĠVall": 6283,
      "Ġsit": 6284,
      "Ġcultiv": 6285,
      "ĠBretaÃ±a": 6286,
      "Ġinvestigaciones": 6287,
      "Ġemig": 6288,
      "MA": 6289,
      "usos": 6290,
      "Ġvege": 6291,
      "SO": 6292,
      "ĠclÃ¡sico": 6293,
      "Ġexpor": 6294,
      "ĠRicardo": 6295,
      "Ġpasajeros": 6296,
      "Ġrelativamente": 6297,
      "ĠlÃŃmites": 6298,
      "Ġarreg": 6299,
      "Ġimpacto": 6300,
      "Ġpresentado": 6301,
      "ĠÃ©sta": 6302,
      "Ġprestig": 6303,
      "xa": 6304,
      "ĠrÃ¡pido": 6305,
      "ĠdedicÃ³": 6306,
      "Ġpopularidad": 6307,
      "47": 6308,
      "Ġcuerpos": 6309,
      "Ġmuestran": 6310,
      "Ġorg": 6311,
      "cador": 6312,
      "Ġmotivos": 6313,
      "Ã³nicas": 6314,
      "echos": 6315,
      "ĠvÃŃctimas": 6316,
      "ĠStan": 6317,
      "Ġadolesc": 6318,
      "Ã³cra": 6319,
      "Ġexcel": 6320,
      "ons": 6321,
      "ĠParlamento": 6322,
      "ĠJoa": 6323,
      "Ġurbano": 6324,
      "Ġabogado": 6325,
      "ĠVa": 6326,
      "Ġreti": 6327,
      "Ġ1941": 6328,
      "ĠCultura": 6329,
      "ĠautomÃ³vil": 6330,
      "Ġdedicado": 6331,
      "ĠGranada": 6332,
      "Ġdesarrolla": 6333,
      "ĠCarta": 6334,
      "licos": 6335,
      "board": 6336,
      "\"\",": 6337,
      "ĠConstan": 6338,
      "jero": 6339,
      "Ã©is": 6340,
      "iense": 6341,
      "ĠcompaÃ±ero": 6342,
      "bro": 6343,
      "Ġbru": 6344,
      "Ġ1962": 6345,
      "presidente": 6346,
      "So": 6347,
      "ĠpidiÃ³": 6348,
      "ĠmontaÃ±a": 6349,
      "Ġregional": 6350,
      "now": 6351,
      "Ġlistas": 6352,
      "istema": 6353,
      "Ġproteger": 6354,
      "Ġocupa": 6355,
      "Ġenla": 6356,
      "Ġinstrumentos": 6357,
      "ĠcrÃŃtico": 6358,
      "ĠClar": 6359,
      "Ġhidro": 6360,
      "Ġparticularmente": 6361,
      "37": 6362,
      "38": 6363,
      "Ġtabla": 6364,
      "ĠNicolÃ¡s": 6365,
      "ĠcompaÃ±ÃŃas": 6366,
      "Ġnormalmente": 6367,
      "angel": 6368,
      "ĠprovocÃ³": 6369,
      "ĠintervenciÃ³n": 6370,
      "ĠafirmÃ³": 6371,
      "ĠBlack": 6372,
      "ĠCro": 6373,
      "ĠutilizÃ³": 6374,
      "Ġ1963": 6375,
      "Ġtran": 6376,
      "rup": 6377,
      "ĠTemp": 6378,
      "ÃŃgenes": 6379,
      "Ġcorresponde": 6380,
      "Ġcondado": 6381,
      "ĠCanal": 6382,
      "Ġflores": 6383,
      "Ġabandonar": 6384,
      "Luego": 6385,
      "Ġempa": 6386,
      "Ġdenomina": 6387,
      "Ġreligiosa": 6388,
      "Ġquedando": 6389,
      "ĠexcepciÃ³n": 6390,
      "ĠEuropea": 6391,
      "usieron": 6392,
      "Ġmito": 6393,
      "Ġinforme": 6394,
      "ĠabriÃ³": 6395,
      "Ġcomportamiento": 6396,
      "Ġdemanda": 6397,
      "ĠSmith": 6398,
      "ĠUno": 6399,
      "Ġsecundaria": 6400,
      "eses": 6401,
      "ĠMic": 6402,
      "Ġregistro": 6403,
      "Ġsubs": 6404,
      "Ġbandera": 6405,
      "field": 6406,
      "Ġpertenece": 6407,
      "ĠVel": 6408,
      "ĠRob": 6409,
      "fru": 6410,
      "dicial": 6411,
      "Ġga": 6412,
      "amar": 6413,
      "Ġreempla": 6414,
      "ium": 6415,
      "Ġencontraban": 6416,
      "ĠCastillo": 6417,
      "ÃŃna": 6418,
      "Ġbrasile": 6419,
      "Fran": 6420,
      "Ġdisc": 6421,
      "Ġpantalla": 6422,
      "ĠocupaciÃ³n": 6423,
      "Ġsecues": 6424,
      "Ġfactores": 6425,
      "ĠÃ¡lbumes": 6426,
      "ĠfÃ¡brica": 6427,
      "icios": 6428,
      "ĠUnidas": 6429,
      "ĠincluÃŃa": 6430,
      "Ġpieza": 6431,
      "Ġnarra": 6432,
      "Ġdrama": 6433,
      "Ġrealmente": 6434,
      "Ġcontinuar": 6435,
      "Ġhistoriador": 6436,
      "Ġganador": 6437,
      "ĠnombrÃ³": 6438,
      "sal": 6439,
      "ela": 6440,
      "Ġpueda": 6441,
      "uan": 6442,
      "Ġalf": 6443,
      "Ġquinto": 6444,
      "roso": 6445,
      "Ġactuales": 6446,
      "Ġbau": 6447,
      "ĠretirÃ³": 6448,
      "ĠParaguay": 6449,
      "Ġingresos": 6450,
      "Ġnad": 6451,
      "Ġhalla": 6452,
      "ĠIrlanda": 6453,
      "Ġtumb": 6454,
      "ĠCompaÃ±ÃŃa": 6455,
      "Ġfilm": 6456,
      "Ġ36": 6457,
      "Ġteniente": 6458,
      "ĠautÃ³n": 6459,
      "Ġplataforma": 6460,
      "ER": 6461,
      "cans": 6462,
      "pla": 6463,
      "ĠÎ": 6464,
      "Ġmomentos": 6465,
      "hen": 6466,
      "ĠUl": 6467,
      "Ġcoinci": 6468,
      "ĠFuerza": 6469,
      "Ġocta": 6470,
      "arago": 6471,
      "posiciones": 6472,
      "Ġenemigos": 6473,
      "Ġjuris": 6474,
      "39": 6475,
      "tÃ©": 6476,
      "Ġintereses": 6477,
      "ĠabandonÃ³": 6478,
      "lie": 6479,
      "Ġcuyos": 6480,
      "Ġelectoral": 6481,
      "grafÃŃas": 6482,
      "ĠScho": 6483,
      "terrÃ¡neo": 6484,
      "Ġejerci": 6485,
      "Ġsorp": 6486,
      "ĠServi": 6487,
      "Ãºan": 6488,
      "idor": 6489,
      "pira": 6490,
      "ĠGuer": 6491,
      "fÃ©": 6492,
      "eck": 6493,
      "Ġimplic": 6494,
      "ĠLoren": 6495,
      "Ġmandato": 6496,
      "Ġveinte": 6497,
      "ĠBay": 6498,
      "ferencias": 6499,
      "Ġformando": 6500,
      "Ġascen": 6501,
      "Ġreserv": 6502,
      "ĠGen": 6503,
      "ĠMario": 6504,
      "Ġamplio": 6505,
      "aliciÃ³n": 6506,
      "Ġcubierta": 6507,
      "Ġseg": 6508,
      "ĠBru": 6509,
      "Ġcampes": 6510,
      "Ġromana": 6511,
      "Ġpresentes": 6512,
      "Ġbarro": 6513,
      "Ġcercano": 6514,
      "Ġseguido": 6515,
      "Ġfi": 6516,
      "port": 6517,
      "Ġescuad": 6518,
      "Ġaltos": 6519,
      "Ã¡ndolo": 6520,
      "desa": 6521,
      "Ġinfec": 6522,
      "Ġcorpor": 6523,
      "Ġalimentos": 6524,
      "Ġconm": 6525,
      "ĠAÃ©": 6526,
      "34": 6527,
      "gulo": 6528,
      "Ġsean": 6529,
      "tti": 6530,
      "Ġtrip": 6531,
      "Ġletra": 6532,
      "ĠEsp": 6533,
      "Ġllegado": 6534,
      "Ġequival": 6535,
      "ĠdebiÃ³": 6536,
      "Ġesque": 6537,
      "Ġsatis": 6538,
      "nia": 6539,
      "omer": 6540,
      "Ġrecog": 6541,
      "ĠficciÃ³n": 6542,
      "Ġdie": 6543,
      "Ġanal": 6544,
      "ĠCuer": 6545,
      "ĠMilitar": 6546,
      "ĠPoco": 6547,
      "ĠcientÃŃfico": 6548,
      "Ġbosques": 6549,
      "Ġdisminu": 6550,
      "Ġ1948": 6551,
      "tuario": 6552,
      "tente": 6553,
      "sk": 6554,
      "Ġtard": 6555,
      "Ġfestival": 6556,
      "ÃŃtico": 6557,
      "Ġ1958": 6558,
      "Ġfij": 6559,
      "Ġargentina": 6560,
      "ĠGrecia": 6561,
      "Ġaltitud": 6562,
      "idal": 6563,
      "ĠFerro": 6564,
      "ĠGreg": 6565,
      "Ġrealizaron": 6566,
      "Pos": 6567,
      "Ġnoroeste": 6568,
      "rue": 6569,
      "âĢĶ,": 6570,
      "ĠcientÃŃficos": 6571,
      "Ġdelan": 6572,
      "Ġcuid": 6573,
      "tadora": 6574,
      "ĠLatino": 6575,
      "Ġconsa": 6576,
      "hol": 6577,
      "Ġevalu": 6578,
      "Ġ1942": 6579,
      "uega": 6580,
      "Ġactivo": 6581,
      "Ġyo": 6582,
      "Ġ1943": 6583,
      "ĠNavar": 6584,
      "Ġestablece": 6585,
      "Ġreta": 6586,
      "ĠPra": 6587,
      "ospech": 6588,
      "Ġrepresentante": 6589,
      "Ġprecio": 6590,
      "ĠIntern": 6591,
      "ĠCastro": 6592,
      "Ġ32": 6593,
      "ĠenseÃ±anza": 6594,
      "cales": 6595,
      "Ġgenera": 6596,
      "Ġestablecido": 6597,
      "Ġdiciendo": 6598,
      "Ġcaza": 6599,
      "Ġposibles": 6600,
      "Ġpinturas": 6601,
      "pano": 6602,
      "Ġarma": 6603,
      "ĠIb": 6604,
      "ĠSeÃ±ora": 6605,
      "ĠFederico": 6606,
      "ĠDem": 6607,
      "cera": 6608,
      "Actualmente": 6609,
      "Ġvincul": 6610,
      "ID": 6611,
      "Ġmiles": 6612,
      "rista": 6613,
      "Ġdiscip": 6614,
      "Ġreducir": 6615,
      "Ġcontro": 6616,
      "carse": 6617,
      "har": 6618,
      "Ġrol": 6619,
      "ĠvÃŃas": 6620,
      "Mientras": 6621,
      "Ġfiestas": 6622,
      "Ġcultivo": 6623,
      "Ġpresu": 6624,
      "ĠPark": 6625,
      "ĠWest": 6626,
      "Ġrecorrido": 6627,
      "ĠlatÃŃn": 6628,
      "ĠXIII": 6629,
      "iver": 6630,
      "Ġhuel": 6631,
      "Ġcolonia": 6632,
      "ĠCÃ©s": 6633,
      "Ġestima": 6634,
      "Ġtratar": 6635,
      "ĠubicaciÃ³n": 6636,
      "Ġinfra": 6637,
      "dientes": 6638,
      "ĠChica": 6639,
      "ĠFC": 6640,
      "500": 6641,
      "ĠTribunal": 6642,
      "mita": 6643,
      "Ġmarido": 6644,
      "rillo": 6645,
      "Ġciertos": 6646,
      "dimiento": 6647,
      "ĠBl": 6648,
      "ĠmarcÃ³": 6649,
      "ementerio": 6650,
      "Ġescritos": 6651,
      "Ġtreinta": 6652,
      "Ġ=": 6653,
      "Ġintenta": 6654,
      "iera": 6655,
      "ĠMÃ¡": 6656,
      "ĠtransmisiÃ³n": 6657,
      "ĠVo": 6658,
      "ĠâĢĺ": 6659,
      "sin": 6660,
      "cÃº": 6661,
      "ĠRay": 6662,
      "Ġesfuerzos": 6663,
      "ivi": 6664,
      "Ġactuaciones": 6665,
      "ĠdesempeÃ±Ã³": 6666,
      "Ġmam": 6667,
      "Ġnegocios": 6668,
      "Ġox": 6669,
      "Ġdocumento": 6670,
      "ĠEle": 6671,
      "Ġnacido": 6672,
      "Ġileg": 6673,
      "ĠmontaÃ±as": 6674,
      "ĠDesarrol": 6675,
      "ĠAD": 6676,
      "ĠAten": 6677,
      "uc": 6678,
      "Ġrein": 6679,
      "Ġmarch": 6680,
      "tha": 6681,
      "king": 6682,
      "Ġtocar": 6683,
      "oledo": 6684,
      "ski": 6685,
      "Ġvictorias": 6686,
      "Ġhabitual": 6687,
      "Ġmix": 6688,
      "cienda": 6689,
      "Ġsiguiendo": 6690,
      "Ġevidencia": 6691,
      "Ġprove": 6692,
      "Ġdec": 6693,
      "Ã©rico": 6694,
      "Ġartill": 6695,
      "pulaciÃ³n": 6696,
      "ĠSebastiÃ¡n": 6697,
      "Ġrepresentantes": 6698,
      "Ġfuncionamiento": 6699,
      "Ġdedicada": 6700,
      "Ġeditor": 6701,
      "iena": 6702,
      "ĠadaptaciÃ³n": 6703,
      "ĠAgus": 6704,
      "ĠdinastÃŃa": 6705,
      "Ġcomprom": 6706,
      "ĠDistrito": 6707,
      "VD": 6708,
      "Ġestatal": 6709,
      "Ġaeropuerto": 6710,
      "Ġdocumental": 6711,
      "urus": 6712,
      "ĠRosario": 6713,
      "Ġ1961": 6714,
      "Ġmone": 6715,
      "Ã³gica": 6716,
      "ĠRoberto": 6717,
      "ĠCamp": 6718,
      "Ġrevistas": 6719,
      "Ġglobal": 6720,
      "lana": 6721,
      "ast": 6722,
      "Ġcabecera": 6723,
      "Ġutilizada": 6724,
      "Ġatacar": 6725,
      "Ġmoderno": 6726,
      "Äģ": 6727,
      "Ġcuadro": 6728,
      "Ġrecientemente": 6729,
      "Ġgir": 6730,
      "Ġresulta": 6731,
      "cidades": 6732,
      "ĠSaint": 6733,
      "Ġsospech": 6734,
      "Bo": 6735,
      "âĢľ": 6736,
      "ezas": 6737,
      "aragoza": 6738,
      "Ġiniciativa": 6739,
      "uma": 6740,
      "Ġterres": 6741,
      "Mo": 6742,
      "44": 6743,
      "ĠLeague": 6744,
      "ualmente": 6745,
      "ĠGir": 6746,
      "Ġmur": 6747,
      "ĠmostrÃ³": 6748,
      "Ġenv": 6749,
      "Ġdesen": 6750,
      "lora": 6751,
      "Ġeditorial": 6752,
      "\":": 6753,
      "Ġfres": 6754,
      "Ġcristianos": 6755,
      "Ġaman": 6756,
      "Ġnoticias": 6757,
      "Ġculto": 6758,
      "trol": 6759,
      "ĠLee": 6760,
      "32": 6761,
      "tÃ©g": 6762,
      "Ġfras": 6763,
      "ĠSala": 6764,
      "Ġpermanente": 6765,
      "ĠsoluciÃ³n": 6766,
      "Ġalianza": 6767,
      "Ġtramo": 6768,
      "Ġabor": 6769,
      "ture": 6770,
      "Ġparlamen": 6771,
      "Ġrequer": 6772,
      "top": 6773,
      "americanos": 6774,
      "Ġlegal": 6775,
      "ĠSor": 6776,
      "Ġgrabado": 6777,
      "ĠRub": 6778,
      "gol": 6779,
      "quinas": 6780,
      "ĠmÃ¡r": 6781,
      "Ġsuperiores": 6782,
      "Ġremon": 6783,
      "iÃ©ndose": 6784,
      "ji": 6785,
      "ĠHenry": 6786,
      "Ġpeligro": 6787,
      "Ġafi": 6788,
      "ĠInternet": 6789,
      "Ġciertas": 6790,
      "ted": 6791,
      "ĠAlto": 6792,
      "Ġsitios": 6793,
      "ĠArmada": 6794,
      "ĠOriente": 6795,
      "Ġresi": 6796,
      "ĠcategorÃŃas": 6797,
      "ĠdiÃ³": 6798,
      "peones": 6799,
      "Äĩ": 6800,
      "cero": 6801,
      "orden": 6802,
      "Ġtriunfo": 6803,
      "Ġcanales": 6804,
      "igas": 6805,
      "Ġnormal": 6806,
      "ĠIl": 6807,
      "ema": 6808,
      "jan": 6809,
      "geno": 6810,
      "Ã©ano": 6811,
      "ĠsÃŃmbolo": 6812,
      "ĠCle": 6813,
      "ĠinformÃ³": 6814,
      "Ġpagar": 6815,
      "ĠSuecia": 6816,
      "Ġfamiliares": 6817,
      "Ã¡rez": 6818,
      "PA": 6819,
      "ĠColle": 6820,
      "Ġextranjero": 6821,
      "Ġestreno": 6822,
      "Ġdesignado": 6823,
      "azz": 6824,
      "Ġ1956": 6825,
      "unciÃ³n": 6826,
      "Ġsimul": 6827,
      "ĠvehÃŃculo": 6828,
      "ĠÃº": 6829,
      "Ġparroquia": 6830,
      "cesiÃ³n": 6831,
      "UU": 6832,
      "dill": 6833,
      "31": 6834,
      "):": 6835,
      "ĠMary": 6836,
      "Ġitaliana": 6837,
      "ĠAtlÃ©tico": 6838,
      "mentar": 6839,
      "Ġdigital": 6840,
      "ĠMarina": 6841,
      "Ġdefendi": 6842,
      "Ġjusto": 6843,
      "culares": 6844,
      "Ġpiano": 6845,
      "ĠIndustr": 6846,
      "ĠAlfre": 6847,
      "ĠhÃ©ro": 6848,
      "Ġrecuperar": 6849,
      "Ġabre": 6850,
      "Ġparticipantes": 6851,
      "reros": 6852,
      "enco": 6853,
      "Ġindividuos": 6854,
      "ĠjaponÃ©s": 6855,
      "Ġterrenos": 6856,
      "ĠdiseÃ±ado": 6857,
      "Ġdestacado": 6858,
      "ezol": 6859,
      "ips": 6860,
      "46": 6861,
      "Ġasesinado": 6862,
      "eral": 6863,
      "ĠPhil": 6864,
      "ĠtrÃ¡fico": 6865,
      "ÃŃp": 6866,
      "Ġarriba": 6867,
      "ĠmÃºsico": 6868,
      "ĠEv": 6869,
      "Ġaumentar": 6870,
      "Ġ1959": 6871,
      "Ġespectadores": 6872,
      "ĠCarmen": 6873,
      "ĠVII": 6874,
      "Ġ1955": 6875,
      "ĠejecuciÃ³n": 6876,
      "Ġdistingu": 6877,
      "tain": 6878,
      "Ġextranjeros": 6879,
      "yl": 6880,
      "Ġperdido": 6881,
      "Ġprivada": 6882,
      "Ġprovincial": 6883,
      "ĠpÃ¡gina": 6884,
      "Ġmedalla": 6885,
      "icis": 6886,
      "Ġganando": 6887,
      "Ġmodern": 6888,
      "Ġexca": 6889,
      "ĠespectÃ¡culo": 6890,
      "ĠCur": 6891,
      "Ġlatino": 6892,
      "uga": 6893,
      "ĠJavier": 6894,
      "Ġfama": 6895,
      "Hay": 6896,
      "Ġrevela": 6897,
      "ĠSantos": 6898,
      "Ġenfermedades": 6899,
      "itante": 6900,
      "Ġmir": 6901,
      "Ġblanca": 6902,
      "ĠDin": 6903,
      "Ġpresi": 6904,
      "Ġ1957": 6905,
      "crito": 6906,
      "Ġpacientes": 6907,
      "Ġexplica": 6908,
      "Ġdictadura": 6909,
      "ĠGobern": 6910,
      "Ġinno": 6911,
      "Ġprecip": 6912,
      "Ġcomprome": 6913,
      "Ġcomponentes": 6914,
      "ÃŃb": 6915,
      "bs": 6916,
      "renta": 6917,
      "ami": 6918,
      "eamente": 6919,
      "ĠasumiÃ³": 6920,
      "Ġhuy": 6921,
      "Ġ1946": 6922,
      "ĠTec": 6923,
      "49": 6924,
      "ĠProfes": 6925,
      "ĠacabÃ³": 6926,
      "Ġampliamente": 6927,
      "Ġ1937": 6928,
      "Ġcompra": 6929,
      "polis": 6930,
      "aco": 6931,
      "Ġhierro": 6932,
      "uz": 6933,
      "Ġefectu": 6934,
      "Ġorquesta": 6935,
      "ĠingresÃ³": 6936,
      "Ġaun": 6937,
      "Ġcoop": 6938,
      "Ġempieza": 6939,
      "Ġlimp": 6940,
      "viendo": 6941,
      "Ġconsejo": 6942,
      "ĠDor": 6943,
      "ĠDich": 6944,
      "Ġsing": 6945,
      "Ġespiri": 6946,
      "Ġriv": 6947,
      "ĠjurÃŃ": 6948,
      "Ġlocalidades": 6949,
      "Ġaustral": 6950,
      "unes": 6951,
      "Ġingeniero": 6952,
      "78": 6953,
      "ĠToledo": 6954,
      "vimiento": 6955,
      "Ġfactor": 6956,
      "Ġcomarca": 6957,
      "Ġpotencial": 6958,
      "Ġalumnos": 6959,
      "Ġequilib": 6960,
      "ĠMy": 6961,
      "arte": 6962,
      "gor": 6963,
      "AS": 6964,
      "lanos": 6965,
      "Ġlide": 6966,
      "ĠKen": 6967,
      "Ġabsor": 6968,
      "biernos": 6969,
      "Ġsopor": 6970,
      "Ãºsica": 6971,
      "estructura": 6972,
      "Can": 6973,
      "ĠKing": 6974,
      "Ġsecreto": 6975,
      "Ã³p": 6976,
      "Ġabajo": 6977,
      "Ġneu": 6978,
      "Ġavance": 6979,
      "ĠFrente": 6980,
      "ĠSem": 6981,
      "Ġnoven": 6982,
      "grÃ¡ficas": 6983,
      "Ġune": 6984,
      "Ġvenezol": 6985,
      "ĠdefiniciÃ³n": 6986,
      "Ġfar": 6987,
      "ĠartÃŃstico": 6988,
      "oc": 6989,
      "Ġmexicana": 6990,
      "fera": 6991,
      "sas": 6992,
      "Ġcartas": 6993,
      "quin": 6994,
      "Ġviene": 6995,
      "cop": 6996,
      "Ġausencia": 6997,
      "inete": 6998,
      "ĠÃ©xitos": 6999,
      "quÃ©s": 7000,
      "Ġamenaza": 7001,
      "ĠnaciÃ³n": 7002,
      "ĠEspe": 7003,
      "ĠVera": 7004,
      "ĠcÃ¡r": 7005,
      "Ġcomedia": 7006,
      "Ġcolegio": 7007,
      "ĠconfirmÃ³": 7008,
      "ĠTodos": 7009,
      "Ġpublicaciones": 7010,
      "hibiciÃ³n": 7011,
      "Ġotom": 7012,
      "rito": 7013,
      "ĠcontinÃºa": 7014,
      "Ġaca": 7015,
      "ĠComunidad": 7016,
      "Ġjusticia": 7017,
      "amarca": 7018,
      "Ġesfuerzo": 7019,
      "ienen": 7020,
      "Ġinforma": 7021,
      "Ġunif": 7022,
      "Ġcenso": 7023,
      "Ġconvento": 7024,
      "ĠDefensa": 7025,
      "ĠTes": 7026,
      "Ġasuntos": 7027,
      "Ġplazo": 7028,
      "Ġater": 7029,
      "Sa": 7030,
      "ĠcuestiÃ³n": 7031,
      "Ġdisfru": 7032,
      "Ho": 7033,
      "55": 7034,
      "Ġ1949": 7035,
      "Ġcuenca": 7036,
      "Ġdefender": 7037,
      "Ġpropa": 7038,
      "let": 7039,
      "Bar": 7040,
      "ĠcapÃŃtulo": 7041,
      "ĠRog": 7042,
      "Ġejemplos": 7043,
      "Ġgar": 7044,
      "Ġdro": 7045,
      "Ġincluir": 7046,
      "landia": 7047,
      "ĠCÃ©sar": 7048,
      "sey": 7049,
      "ĠAndalu": 7050,
      "OS": 7051,
      "Ġgig": 7052,
      "Ġamenaz": 7053,
      "Ġ400": 7054,
      "Ġestuvieron": 7055,
      "ĠNuestra": 7056,
      "Ġmono": 7057,
      "Ġdescubre": 7058,
      "Ġrival": 7059,
      "Ġdeclara": 7060,
      "gro": 7061,
      "ĠÐ": 7062,
      "Ġrendimiento": 7063,
      "Ġconocidas": 7064,
      "76": 7065,
      "ĠRosa": 7066,
      "ĠMol": 7067,
      "Ġencontraron": 7068,
      "Ġviviendas": 7069,
      "Ġpredomin": 7070,
      "ĠMark": 7071,
      "ĠposesiÃ³n": 7072,
      "ĠconcentraciÃ³n": 7073,
      "Ġcola": 7074,
      "Ġrealizan": 7075,
      "Ġtotalidad": 7076,
      "Ġasisten": 7077,
      "ĠcelebraciÃ³n": 7078,
      "trans": 7079,
      "Ġnombra": 7080,
      "incesa": 7081,
      "Ã¡stico": 7082,
      "rum": 7083,
      "Ġ1947": 7084,
      "acer": 7085,
      "Ġprecios": 7086,
      "alizados": 7087,
      "Ġprimavera": 7088,
      "Ġescritura": 7089,
      "Ġmorir": 7090,
      "Ġcolumnas": 7091,
      "ds": 7092,
      "Ġbronce": 7093,
      "Ġderrotado": 7094,
      "Ġpodemos": 7095,
      "Ġ1938": 7096,
      "Ġromanos": 7097,
      "99": 7098,
      "ced": 7099,
      "ww": 7100,
      "ĠMaes": 7101,
      "ĠCampo": 7102,
      "onces": 7103,
      "Ã³nicos": 7104,
      "Ġverdadero": 7105,
      "elli": 7106,
      "ĠcayÃ³": 7107,
      "Ġestablecimiento": 7108,
      "Ġsegundos": 7109,
      "ĠHit": 7110,
      "Ġagente": 7111,
      "ĠIgna": 7112,
      "Ġpensamiento": 7113,
      "Ġpunta": 7114,
      "ĠFon": 7115,
      "iscal": 7116,
      "ani": 7117,
      "Ġvive": 7118,
      "Ġtrayectoria": 7119,
      "Ġocasion": 7120,
      "Ġasi": 7121,
      "ĠFal": 7122,
      "Ġrepresentan": 7123,
      "ĠPanamÃ¡": 7124,
      "Ġdescen": 7125,
      "Ġexam": 7126,
      "ĠenfrentÃ³": 7127,
      "ĠIns": 7128,
      "ĠSuiza": 7129,
      "Ġdul": 7130,
      "Ġdescans": 7131,
      "ĠjardÃŃn": 7132,
      "ĠIngen": 7133,
      "ĠdaÃ±os": 7134,
      "comun": 7135,
      "ĠEstudios": 7136,
      "Ġfinalizar": 7137,
      "Ġreligiosas": 7138,
      "cara": 7139,
      "ĠMoscÃº": 7140,
      "ĠChicago": 7141,
      "ĠZaragoza": 7142,
      "ricaciÃ³n": 7143,
      "ĠcÃº": 7144,
      "ĠespecÃŃ": 7145,
      "ĠBob": 7146,
      "42": 7147,
      "tinas": 7148,
      "fin": 7149,
      "Ġprofundidad": 7150,
      "ĠderrotÃ³": 7151,
      "Ġespera": 7152,
      "Ġsolar": 7153,
      "Ġencu": 7154,
      "Ġquedaron": 7155,
      "Ġshow": 7156,
      "tÃŃcu": 7157,
      "uero": 7158,
      "Ġgraba": 7159,
      "Ġcercana": 7160,
      "Ġleyenda": 7161,
      "Ġpelea": 7162,
      "Ġencargado": 7163,
      "Ġempleados": 7164,
      "Ġmonumento": 7165,
      "Ġlograron": 7166,
      "Ġservir": 7167,
      "Ġ38": 7168,
      "ridos": 7169,
      "Ġelenco": 7170,
      "Ġreper": 7171,
      "ĠFranco": 7172,
      "Ġdolor": 7173,
      "ĠhistÃ³ricos": 7174,
      "Ġparticiparon": 7175,
      "iy": 7176,
      "eval": 7177,
      "Ġnegocio": 7178,
      "tto": 7179,
      "ube": 7180,
      "ĠPC": 7181,
      "Ġsignificado": 7182,
      "ĠGabriel": 7183,
      "Ġdiscipl": 7184,
      "ĠNavarra": 7185,
      "Ġconstituye": 7186,
      "ĠCollege": 7187,
      "Ġcontras": 7188,
      "Ġaliados": 7189,
      "ctur": 7190,
      "ĠcomparaciÃ³n": 7191,
      "enio": 7192,
      "ĠcÃŃr": 7193,
      "Ġbasa": 7194,
      "Ġincluida": 7195,
      "ometra": 7196,
      "ĠcrÃ©di": 7197,
      "Ġ1931": 7198,
      "Ġretirada": 7199,
      "Ġfechas": 7200,
      "ĠPlay": 7201,
      "Ġextrem": 7202,
      "denas": 7203,
      "dicciÃ³n": 7204,
      "Ġemis": 7205,
      "ĠCultural": 7206,
      "ĠDol": 7207,
      "Ġ1952": 7208,
      "Ġatraves": 7209,
      "ĠBatalla": 7210,
      "Ġilustr": 7211,
      "Ġrestaur": 7212,
      "ĠÃ³pera": 7213,
      "ĠFlorida": 7214,
      "Ġacre": 7215,
      "Ġcorrespondiente": 7216,
      "Ġprece": 7217,
      "Ġreciente": 7218,
      "Ġdiscurso": 7219,
      "Ġ1933": 7220,
      "Ġgus": 7221,
      "Ġpermiten": 7222,
      "ĠdescubriÃ³": 7223,
      "Ġprovis": 7224,
      "ĠAvenida": 7225,
      "Ġcil": 7226,
      "Ġanimal": 7227,
      "Ġaplicaciones": 7228,
      "ĠartÃŃstica": 7229,
      "Ġpartid": 7230,
      "ĠcelebrÃ³": 7231,
      "Ġimperial": 7232,
      "Ġdensidad": 7233,
      "elle": 7234,
      "ciano": 7235,
      "ĠocurriÃ³": 7236,
      "Ġgub": 7237,
      "Ã¡stica": 7238,
      "ĠOriental": 7239,
      "Ġama": 7240,
      "gÃ©n": 7241,
      "uk": 7242,
      "gotÃ¡": 7243,
      "ĠCaball": 7244,
      "imp": 7245,
      "Ġdeterminar": 7246,
      "urt": 7247,
      "eng": 7248,
      "Ġ1953": 7249,
      "Ġcomida": 7250,
      "ĠelÃ©ctrica": 7251,
      "Ġhues": 7252,
      "ĠJuven": 7253,
      "Ġlejos": 7254,
      "Ġsoftware": 7255,
      "Ġposiblemente": 7256,
      "Ġrecep": 7257,
      "ĠPaÃŃses": 7258,
      "Ġentra": 7259,
      "Ġimperio": 7260,
      "Ġdimens": 7261,
      "ĠAntes": 7262,
      "kov": 7263,
      "ĠrealizaciÃ³n": 7264,
      "forman": 7265,
      "Ġtarea": 7266,
      "Ġalar": 7267,
      "Ġlados": 7268,
      "Ġproducida": 7269,
      "Ġtitulada": 7270,
      "ĠfenÃ³meno": 7271,
      "Ġediciones": 7272,
      "Ġ1954": 7273,
      "mis": 7274,
      "ster": 7275,
      "ĠeconÃ³micos": 7276,
      "Ġlogrando": 7277,
      "Ġmenciona": 7278,
      "Ġofens": 7279,
      "41": 7280,
      "ze": 7281,
      "trocin": 7282,
      "Ġdeclarado": 7283,
      "pany": 7284,
      "vada": 7285,
      "uf": 7286,
      "ĠGas": 7287,
      "Ġconsideran": 7288,
      "Ã©ticas": 7289,
      "MS": 7290,
      "Ġinfancia": 7291,
      "encial": 7292,
      "ĠCarl": 7293,
      "Ġverdad": 7294,
      "ĠVÃŃ": 7295,
      "Ġpago": 7296,
      "tÃ¡ndose": 7297,
      "Ġchileno": 7298,
      "iada": 7299,
      "Ġdesembo": 7300,
      "Ġllevan": 7301,
      "65": 7302,
      "ĠprogramaciÃ³n": 7303,
      "ak": 7304,
      "ĠcomisiÃ³n": 7305,
      "ĠviajÃ³": 7306,
      "diz": 7307,
      "Ġconsigue": 7308,
      "Ġcarne": 7309,
      "Ġculmin": 7310,
      "ah": 7311,
      "ĠDesarrollo": 7312,
      "Ġpudieron": 7313,
      "ĠdaÃ±": 7314,
      "Ġdefinitivamente": 7315,
      "reste": 7316,
      "zobispo": 7317,
      "Ġbiblioteca": 7318,
      "ĠXII": 7319,
      "ecÃŃan": 7320,
      "Ġacord": 7321,
      "ĠLorenzo": 7322,
      "IS": 7323,
      "Ġutilizados": 7324,
      "ĠcÃ¡ncer": 7325,
      "LA": 7326,
      "dell": 7327,
      "ĠclÃ¡sica": 7328,
      "ĠReyes": 7329,
      "Ġinvolucr": 7330,
      "Ġhabilidades": 7331,
      "ĠSchool": 7332,
      "Ġdeporte": 7333,
      "ĠgrÃ¡f": 7334,
      "cismo": 7335,
      "Ġescon": 7336,
      "ĠCastel": 7337,
      "Ġverdadera": 7338,
      "leza": 7339,
      "ĠgÃ©neros": 7340,
      "Ġhacerse": 7341,
      "Ġanex": 7342,
      "ĠmÃ³vil": 7343,
      "ĠeconÃ³micas": 7344,
      "Per": 7345,
      "ĠRico": 7346,
      "Ġhumor": 7347,
      "Ġreclu": 7348,
      "Ġejemplares": 7349,
      "Ġeuropeo": 7350,
      "Ġfiel": 7351,
      "oreste": 7352,
      "ĠsÃ³l": 7353,
      "video": 7354,
      "Gu": 7355,
      "ĠestratÃ©g": 7356,
      "ĠBajos": 7357,
      "Ġtrabaja": 7358,
      "the": 7359,
      "jada": 7360,
      "Ġgobiernos": 7361,
      "ĠgrabÃ³": 7362,
      "Ġafric": 7363,
      "ÃŃnea": 7364,
      "ĠBrown": 7365,
      "Ġiglesias": 7366,
      "Ġtop": 7367,
      "ĠStre": 7368,
      "Ġmargen": 7369,
      "Ġceremonia": 7370,
      "ĠÃ³rgano": 7371,
      "ĠTratado": 7372,
      "ĠComer": 7373,
      "Lu": 7374,
      "Ġperspec": 7375,
      "Ġsuma": 7376,
      "Ġreserva": 7377,
      "Ġnegra": 7378,
      "Ġhubiera": 7379,
      "dolfo": 7380,
      "Ġproviene": 7381,
      "ĠopciÃ³n": 7382,
      "ĠfusiÃ³n": 7383,
      "ata": 7384,
      "ĠdifusiÃ³n": 7385,
      "Ġaparecer": 7386,
      "Ġminuto": 7387,
      "ĠAng": 7388,
      "Ġsiguen": 7389,
      "Jos": 7390,
      "ĠfÃŃsico": 7391,
      "dras": 7392,
      "ĠdisposiciÃ³n": 7393,
      "Ġviajes": 7394,
      "render": 7395,
      "Ġdisponibles": 7396,
      "mple": 7397,
      "ĠdestrucciÃ³n": 7398,
      "Ġnecesidades": 7399,
      "lantes": 7400,
      "tive": 7401,
      "Ġdiferenci": 7402,
      "Ġcontinente": 7403,
      "Ġ1918": 7404,
      "Ġnovelas": 7405,
      "43": 7406,
      "ĠJoseph": 7407,
      "Don": 7408,
      "inten": 7409,
      "Ġinglesa": 7410,
      "tecas": 7411,
      "Ġpic": 7412,
      "Ð°": 7413,
      "Ġaux": 7414,
      "tamento": 7415,
      "ĠChi": 7416,
      "ĠactuÃ³": 7417,
      "parte": 7418,
      "Ġrique": 7419,
      "Ġusan": 7420,
      "ĠadquiriÃ³": 7421,
      "ernam": 7422,
      "Ġhacerlo": 7423,
      "ctos": 7424,
      "Ġacces": 7425,
      "ĠdescribiÃ³": 7426,
      "vileg": 7427,
      "ĠconservaciÃ³n": 7428,
      "Ġpropuso": 7429,
      "igna": 7430,
      "ĠMuchos": 7431,
      "Ġduda": 7432,
      "ĠSenado": 7433,
      "onso": 7434,
      "Ġentrenamiento": 7435,
      "Ġsale": 7436,
      "Ġderrotar": 7437,
      "Ġabierta": 7438,
      "erte": 7439,
      "Ġactiva": 7440,
      "ĠfabricaciÃ³n": 7441,
      "Ġindividual": 7442,
      "ĠdebÃŃan": 7443,
      "ĠSeÃ±or": 7444,
      "Ġamistad": 7445,
      "uss": 7446,
      "cro": 7447,
      "Ġuniversidades": 7448,
      "tions": 7449,
      "Ġaprendiz": 7450,
      "Ġrequiere": 7451,
      "Ġrecin": 7452,
      "Ġ160": 7453,
      "Ġtendencia": 7454,
      "ets": 7455,
      "Ġetapas": 7456,
      "ĠCel": 7457,
      "dela": 7458,
      "ĠBellas": 7459,
      "Ġcolumna": 7460,
      "Ġmala": 7461,
      "Ġjuega": 7462,
      "ervi": 7463,
      "quilla": 7464,
      "Ġlabora": 7465,
      "Ġintegrantes": 7466,
      "Ġoferta": 7467,
      "ĠMexic": 7468,
      "ĠbaterÃŃa": 7469,
      "ĠsÃ©pti": 7470,
      "68": 7471,
      "ĠnegÃ³": 7472,
      "ĠtelÃ©": 7473,
      "Ġparroqui": 7474,
      "ĠPie": 7475,
      "esper": 7476,
      "Ġdeseo": 7477,
      "ĠTres": 7478,
      "Ġaeron": 7479,
      "pole": 7480,
      "dil": 7481,
      "Ġgalard": 7482,
      "Ġpiso": 7483,
      "Ġdepartam": 7484,
      "Ġdecidieron": 7485,
      "enz": 7486,
      "Ġllamadas": 7487,
      "ĠdeclaraciÃ³n": 7488,
      "ĠAngel": 7489,
      "ĠAgustÃŃn": 7490,
      "deos": 7491,
      "Ġmedicina": 7492,
      "ĠHal": 7493,
      "Ġobtiene": 7494,
      "Ġagentes": 7495,
      "ĠMendo": 7496,
      "Ġ1934": 7497,
      "onos": 7498,
      "Ġliberal": 7499,
      "secu": 7500,
      "Ġul": 7501,
      "Ġsuici": 7502,
      "Col": 7503,
      "ĠHasta": 7504,
      "Ġunirse": 7505,
      "MÃ¡s": 7506,
      "istiÃ³": 7507,
      "Ġartifici": 7508,
      "Ġcoche": 7509,
      "Ġescritores": 7510,
      "ov": 7511,
      "ianas": 7512,
      "ĠPala": 7513,
      "Ġborde": 7514,
      "ĠOccidental": 7515,
      "ĠAgu": 7516,
      "iner": 7517,
      "Ġvoto": 7518,
      "ĠJoaquÃŃn": 7519,
      "ĠLis": 7520,
      "tÃ©r": 7521,
      "ĠDemocr": 7522,
      "Ġtasa": 7523,
      "oncesto": 7524,
      "Ġblancos": 7525,
      "95": 7526,
      "Ġcere": 7527,
      "ĠTexas": 7528,
      "Ġmensaje": 7529,
      "ĠarquitectÃ³n": 7530,
      "Ġpone": 7531,
      "ĠcientÃŃfica": 7532,
      "Ġcicl": 7533,
      "tizar": 7534,
      "ĠsÃ¡": 7535,
      "Debido": 7536,
      "Ġinterven": 7537,
      "Ġmunicipales": 7538,
      "ĠMax": 7539,
      "urg": 7540,
      "Ġelog": 7541,
      "Ġdispers": 7542,
      "Ġalcance": 7543,
      "tallas": 7544,
      "onado": 7545,
      "ĠMis": 7546,
      "Ġusuario": 7547,
      "Ġocurre": 7548,
      "ĠLeo": 7549,
      "Ġexclusivamente": 7550,
      "Ġdifun": 7551,
      "ĠprÃ¡cticas": 7552,
      "Ġrural": 7553,
      "ĠRegiÃ³n": 7554,
      "ĠJane": 7555,
      "ĠAlcal": 7556,
      "Ġatribuy": 7557,
      "Ġinfantil": 7558,
      "Ġdiputados": 7559,
      "ĠfinalizÃ³": 7560,
      "Ġtestimon": 7561,
      "ĠCatÃ³lica": 7562,
      "Ġ33": 7563,
      "Ġbuques": 7564,
      "ĠconsiderÃ³": 7565,
      "Ġempleo": 7566,
      "ĠaprobaciÃ³n": 7567,
      "ĠZel": 7568,
      "ĠAlgunas": 7569,
      "Ġreligiosos": 7570,
      "Ġfortaleza": 7571,
      "Ġadultos": 7572,
      "ĠdurÃ³": 7573,
      "Ġfamosa": 7574,
      "ĠLuna": 7575,
      "ling": 7576,
      "Ġobliga": 7577,
      "Ġemer": 7578,
      "ĠIgnacio": 7579,
      "ĠcombinaciÃ³n": 7580,
      "gando": 7581,
      "Ġprisioneros": 7582,
      "ĠDal": 7583,
      "Ġseguidores": 7584,
      "Ġembar": 7585,
      "Ġbizan": 7586,
      "Ġrebo": 7587,
      "Ġcolonial": 7588,
      "ited": 7589,
      "bran": 7590,
      "guien": 7591,
      "Ġpese": 7592,
      "ĠcoaliciÃ³n": 7593,
      "Ġilus": 7594,
      "Ġsucesor": 7595,
      "ĠGuardia": 7596,
      "ĠLatina": 7597,
      "ĠespÃŃritu": 7598,
      "uco": 7599,
      "ĠRena": 7600,
      "EC": 7601,
      "ĠGusta": 7602,
      "ĠrestauraciÃ³n": 7603,
      "Ġdificultades": 7604,
      "ĠShe": 7605,
      "ĠTan": 7606,
      "Ġefica": 7607,
      "eramente": 7608,
      "Ġpersonalidad": 7609,
      "riles": 7610,
      "Ġllegan": 7611,
      "Ġrepresentar": 7612,
      "Ġreligioso": 7613,
      "ologÃŃas": 7614,
      "ĠConcepciÃ³n": 7615,
      "ĠhipÃ³": 7616,
      "Ġferrovi": 7617,
      "Ġexpan": 7618,
      "ius": 7619,
      "Ġestan": 7620,
      "Ġquiz": 7621,
      "ĠBrig": 7622,
      "ĠDVD": 7623,
      "Ġcosa": 7624,
      "Ġpatrocin": 7625,
      "Ġlanza": 7626,
      "ere": 7627,
      "Ġmisiones": 7628,
      "ĠTam": 7629,
      "Am": 7630,
      "Ġhol": 7631,
      "Ġ1929": 7632,
      "Ġsirve": 7633,
      "Ġdirigir": 7634,
      "fun": 7635,
      "ĠRoyal": 7636,
      "ĠresoluciÃ³n": 7637,
      "ĠaceptÃ³": 7638,
      "Ġdetalles": 7639,
      "ĠElec": 7640,
      "Ġdenun": 7641,
      "Ġcaracteriza": 7642,
      "Ġexcepto": 7643,
      "Ġraza": 7644,
      "ĠBau": 7645,
      "Ġpasaron": 7646,
      "uch": 7647,
      "ĠMedio": 7648,
      "ĠLen": 7649,
      "ĠBogotÃ¡": 7650,
      "Ġinvestigadores": 7651,
      "ĠartillerÃŃa": 7652,
      "ĠHill": 7653,
      "ĠconstituciÃ³n": 7654,
      "Ġportada": 7655,
      "Ġacontecimientos": 7656,
      "ĠIncl": 7657,
      "ĠTomÃ¡s": 7658,
      "ball": 7659,
      "ee": 7660,
      "ĠRy": 7661,
      "Ġobligado": 7662,
      "vaciones": 7663,
      "Ġrealizadas": 7664,
      "Ġlegis": 7665,
      "eciendo": 7666,
      "Ġbrin": 7667,
      "Ġec": 7668,
      "Ġasistencia": 7669,
      "tian": 7670,
      "hal": 7671,
      "Ġactuar": 7672,
      "Ġbaile": 7673,
      "Ġmantenimiento": 7674,
      "Ġresponsabilidad": 7675,
      "Ġ75": 7676,
      "Ġpreviamente": 7677,
      "77": 7678,
      "ĠSac": 7679,
      "Ġcontrolar": 7680,
      "Ġvender": 7681,
      "ĠNav": 7682,
      "tilidad": 7683,
      "Ġviento": 7684,
      "Ġisrael": 7685,
      "Ġnuestra": 7686,
      "Ġprivileg": 7687,
      "ĠconexiÃ³n": 7688,
      "Ġ1935": 7689,
      "Ġefici": 7690,
      "Ġnaves": 7691,
      "iversario": 7692,
      "ĠfÃ¡cilmente": 7693,
      "Ġestudiante": 7694,
      "Ġllan": 7695,
      "Ã©la": 7696,
      "edades": 7697,
      "Ġpartida": 7698,
      "mul": 7699,
      "Ġhall": 7700,
      "ĠBiblioteca": 7701,
      "Ġencuentros": 7702,
      "Ġvideojuego": 7703,
      "Ġdimensiones": 7704,
      "gl": 7705,
      "ariamente": 7706,
      "Ġeuropea": 7707,
      "ĠVin": 7708,
      "Ġrespal": 7709,
      "Ġcombustible": 7710,
      "Ġtareas": 7711,
      "Ġhun": 7712,
      "grÃ¡ficos": 7713,
      "Ġpapeles": 7714,
      "Ġseres": 7715,
      "ĠMaria": 7716,
      "ĠofreciÃ³": 7717,
      "ĠNaciÃ³n": 7718,
      "ĠCop": 7719,
      "Ġgesti": 7720,
      "Ã³f": 7721,
      "Ġjuez": 7722,
      "ĠSt": 7723,
      "Ġilum": 7724,
      "ĠArt": 7725,
      "Ġvertic": 7726,
      "Ġfueran": 7727,
      "ĠexplotaciÃ³n": 7728,
      "Ãºcar": 7729,
      "cionÃ³": 7730,
      "ĠBlo": 7731,
      "Ġinvitado": 7732,
      "Ġconflictos": 7733,
      "Ġfemenino": 7734,
      "Ġcreciente": 7735,
      "ĠMendoza": 7736,
      "tropolitana": 7737,
      "Ġcaballo": 7738,
      "Ġvid": 7739,
      "Ġalo": 7740,
      "Ġalco": 7741,
      "Ġsuminis": 7742,
      "Ġnuestro": 7743,
      "Ġconsegu": 7744,
      "Ġagres": 7745,
      "Ġsacerdote": 7746,
      "Ġrelev": 7747,
      "Ġpac": 7748,
      "Ġtiro": 7749,
      "Ġjusti": 7750,
      "Ġsexo": 7751,
      "Ġmezcl": 7752,
      "Ġexistentes": 7753,
      "ustin": 7754,
      "Ġritmo": 7755,
      "ĠinstalaciÃ³n": 7756,
      "Ġrebeldes": 7757,
      "Ġreform": 7758,
      "ule": 7759,
      "Ġtercero": 7760,
      "Ġhomos": 7761,
      "Ġindependientes": 7762,
      "Ġchino": 7763,
      "ĠCir": 7764,
      "Algunos": 7765,
      "ueve": 7766,
      "ĠSalud": 7767,
      "ĠLove": 7768,
      "Ã©lgica": 7769,
      "ĠUE": 7770,
      "ĠCorona": 7771,
      "uerta": 7772,
      "Ġacel": 7773,
      "cea": 7774,
      "tible": 7775,
      "lando": 7776,
      "tenta": 7777,
      "Ġlluvi": 7778,
      "pula": 7779,
      "Ġconsiderar": 7780,
      "cuenta": 7781,
      "ĠAutÃ³n": 7782,
      "remo": 7783,
      "ders": 7784,
      "umental": 7785,
      "Ġhomosex": 7786,
      "itando": 7787,
      "paÃ±as": 7788,
      "ÃŃvar": 7789,
      "Ãºme": 7790,
      "ĠIsla": 7791,
      "Ġbarrios": 7792,
      "ĠBajo": 7793,
      "mirante": 7794,
      "Ġdada": 7795,
      "nie": 7796,
      "Ġbailar": 7797,
      "Ġtemperaturas": 7798,
      "Ġgris": 7799,
      "Ġimpresion": 7800,
      "ĠacompaÃ±ado": 7801,
      "Ġfantas": 7802,
      "Ġpoca": 7803,
      "Ġeuros": 7804,
      "Ġdisputa": 7805,
      "ĠorganizÃ³": 7806,
      "',": 7807,
      "Ġdebate": 7808,
      "Ġ1932": 7809,
      "Ġabrir": 7810,
      "daje": 7811,
      "ĠAdministraciÃ³n": 7812,
      "ĠIndependencia": 7813,
      "ĠLic": 7814,
      "tanas": 7815,
      "ĠCompany": 7816,
      "Ġbuque": 7817,
      "Ġprivado": 7818,
      "itados": 7819,
      "Ġ1917": 7820,
      "85": 7821,
      "ĠSp": 7822,
      "ĠmÃ¡quina": 7823,
      "ĠcÃ¡rcel": 7824,
      "Ġ1951": 7825,
      "ĠSig": 7826,
      "tÃ©l": 7827,
      "Ġagra": 7828,
      "ĠAlonso": 7829,
      "ĠProdu": 7830,
      "ĠNar": 7831,
      "Ġsalvar": 7832,
      "Ġcastellano": 7833,
      "Ġguard": 7834,
      "Ġdeca": 7835,
      "ĠEug": 7836,
      "ganos": 7837,
      "DA": 7838,
      "ĠvÃ¡l": 7839,
      "ĠdeberÃŃa": 7840,
      "ĠTorres": 7841,
      "Ġcalor": 7842,
      "mpoco": 7843,
      "esen": 7844,
      "ĠseparaciÃ³n": 7845,
      "Ġpoblado": 7846,
      "Ġcens": 7847,
      "Ġcuartos": 7848,
      "amora": 7849,
      "Ġtesis": 7850,
      "Ġpion": 7851,
      "Ġparale": 7852,
      "Cas": 7853,
      "ĠSeguridad": 7854,
      "toÃ±o": 7855,
      "Ġnorma": 7856,
      "ĠintroducciÃ³n": 7857,
      "Ġmostrar": 7858,
      "viaciÃ³n": 7859,
      "Ġpudiera": 7860,
      "Ġprefer": 7861,
      "Ġporta": 7862,
      "Ġpresidencial": 7863,
      "tta": 7864,
      "ĠteÃ³r": 7865,
      "ĠSara": 7866,
      "landÃ©s": 7867,
      "hite": 7868,
      "ĠAndalucÃŃa": 7869,
      "amas": 7870,
      "ĠBoy": 7871,
      "Ġ65": 7872,
      "Ġpersonales": 7873,
      "Ġfrecuentemente": 7874,
      "ĠayudÃ³": 7875,
      "Ġpatrimonio": 7876,
      "Ġcompi": 7877,
      "Ġventaja": 7878,
      "Ġtampoco": 7879,
      "Ġprimi": 7880,
      "Ġconstitucional": 7881,
      "Ġviejo": 7882,
      "Ġoficinas": 7883,
      "Ġonce": 7884,
      "Ġcinta": 7885,
      "ĠRum": 7886,
      "ĠXIV": 7887,
      "ĠaprobÃ³": 7888,
      "itch": 7889,
      "Ġcursos": 7890,
      "Ġ(Â«": 7891,
      "Ġreglas": 7892,
      "ĠAÃ©rea": 7893,
      "fal": 7894,
      "cripciÃ³n": 7895,
      "ĠSun": 7896,
      "junto": 7897,
      "Ġfuncionarios": 7898,
      "Ġesclavos": 7899,
      "Ġimpon": 7900,
      "Ġorganismo": 7901,
      "Or": 7902,
      "ĠTab": 7903,
      "Ġoficina": 7904,
      "ĠmetÃ¡": 7905,
      "omba": 7906,
      "ĠTok": 7907,
      "Ġguerras": 7908,
      "Ġdestacados": 7909,
      "ĠIslas": 7910,
      "ĠHolly": 7911,
      "ĠemitiÃ³": 7912,
      "Ġmanifies": 7913,
      "98": 7914,
      "Ġdescubrimiento": 7915,
      "Ġluchar": 7916,
      "ĠColum": 7917,
      "Ġatrac": 7918,
      "66": 7919,
      "irÃ¡": 7920,
      "Ġdata": 7921,
      "Ġintentar": 7922,
      "ĠMovimiento": 7923,
      "ĠViena": 7924,
      "Ġejecutivo": 7925,
      "Ġvieron": 7926,
      "clesi": 7927,
      "Ã¡i": 7928,
      "ĠbÃ³": 7929,
      "Ġprede": 7930,
      "Ġlibres": 7931,
      "ĠpartÃŃcu": 7932,
      "ĠÃģlvarez": 7933,
      "ĠpÃ¡ginas": 7934,
      "ĠNegro": 7935,
      "Ġestrategia": 7936,
      "ĠMÃºsica": 7937,
      "Ġdoctr": 7938,
      "Ġact": 7939,
      "ĠfotografÃŃa": 7940,
      "udal": 7941,
      "Ġalguien": 7942,
      "Ġreyes": 7943,
      "ĠorÃŃgenes": 7944,
      "Ġconsideraba": 7945,
      "Ġnadie": 7946,
      "ĠlingÃ¼": 7947,
      "ĠPrimer": 7948,
      "ĠHall": 7949,
      "Ġguitarrista": 7950,
      "ĠtraducciÃ³n": 7951,
      "ĠPier": 7952,
      "ulgar": 7953,
      "Ġjugando": 7954,
      "Ġtropical": 7955,
      "Ġben": 7956,
      "Ġintegrado": 7957,
      "%.": 7958,
      "ÃŃfer": 7959,
      "rilla": 7960,
      "zados": 7961,
      "Ġuniverso": 7962,
      "ectÃ¡": 7963,
      "Ra": 7964,
      "ĠTw": 7965,
      "ique": 7966,
      "ĠGlo": 7967,
      "Ġsemi": 7968,
      "Ġequip": 7969,
      "Ġextiende": 7970,
      "Ã³mica": 7971,
      "ioso": 7972,
      "ĠcaÃ±ones": 7973,
      "ĠBritÃ¡n": 7974,
      "Ġintentos": 7975,
      "Ġincluidos": 7976,
      "ifa": 7977,
      "Ġpasos": 7978,
      "quieren": 7979,
      "Ġprogram": 7980,
      "ĠMara": 7981,
      "ĠKir": 7982,
      "Ã³logos": 7983,
      "ĠreducciÃ³n": 7984,
      "pens": 7985,
      "Ġindios": 7986,
      "ĠsurgiÃ³": 7987,
      "dam": 7988,
      "ĠcampaÃ±as": 7989,
      "estre": 7990,
      "ĠPic": 7991,
      "Ġderiva": 7992,
      "usal": 7993,
      "trales": 7994,
      "Ġ1914": 7995,
      "Ġsacri": 7996,
      "ĠrecuperaciÃ³n": 7997,
      "ĠrÃ¡pida": 7998,
      "Ġesposo": 7999,
      "Ġescultura": 8000,
      "ĠLouis": 8001,
      "Ġpoemas": 8002,
      "Ġnoreste": 8003,
      "Ġciencias": 8004,
      "ĠJaime": 8005,
      "nam": 8006,
      "Ġrelacionadas": 8007,
      "Ġhoriz": 8008,
      "Ġinstrumento": 8009,
      "ĠEnter": 8010,
      "Ġ1919": 8011,
      "Ġretras": 8012,
      "Ġlaterales": 8013,
      "Ġcierre": 8014,
      "Mad": 8015,
      "ĠotorgÃ³": 8016,
      "Ġproducen": 8017,
      "Ġ1928": 8018,
      "ĠAmbos": 8019,
      "Ġsupervi": 8020,
      "190": 8021,
      "Ġvapor": 8022,
      "Ġacor": 8023,
      "ĠtendrÃŃa": 8024,
      "Ġinstru": 8025,
      "edor": 8026,
      "Ġmotiv": 8027,
      "Ġvoluntad": 8028,
      "Ġrecre": 8029,
      "Ã¡sico": 8030,
      "Ġexter": 8031,
      "ĠdiÃ³cesis": 8032,
      "AC": 8033,
      "mad": 8034,
      "une": 8035,
      "ume": 8036,
      "ĠDisney": 8037,
      "nal": 8038,
      "grada": 8039,
      "Ġorganismos": 8040,
      "ĠRio": 8041,
      "Ġsocio": 8042,
      "enciado": 8043,
      "denal": 8044,
      "Ġegip": 8045,
      "ĠdestacÃ³": 8046,
      "Ġmoral": 8047,
      "ĠBran": 8048,
      "Ġcuel": 8049,
      "laga": 8050,
      "tencias": 8051,
      "ĠGor": 8052,
      "ĠclÃŃn": 8053,
      "Ġreformas": 8054,
      "vino": 8055,
      "ĠOlÃŃmpicos": 8056,
      "Ġbordo": 8057,
      "ĠVe": 8058,
      "Ġregistros": 8059,
      "ĠespaÃ±olas": 8060,
      "ĠJaco": 8061,
      "ĠpolÃ©m": 8062,
      "iger": 8063,
      "Ã©nez": 8064,
      "ĠAgr": 8065,
      "ĠBil": 8066,
      "Ġcuyas": 8067,
      "jÃ©rcitos": 8068,
      "ĠAudi": 8069,
      ")\"": 8070,
      "torn": 8071,
      "rÃŃ": 8072,
      "ierto": 8073,
      "ĠMujer": 8074,
      "Ġinferiores": 8075,
      "Ġinteligencia": 8076,
      "dillera": 8077,
      "ÃŃmp": 8078,
      "ĠReina": 8079,
      "Ġdescenso": 8080,
      "Ġgubernam": 8081,
      "Cor": 8082,
      "Ġargumen": 8083,
      "His": 8084,
      "erdos": 8085,
      "Ġrama": 8086,
      "Ġcomenzar": 8087,
      "Ġsencillos": 8088,
      "ĠTy": 8089,
      "ĠLes": 8090,
      "ĠFuerzas": 8091,
      "Ġbelleza": 8092,
      "ĠCaracas": 8093,
      "Ġregresa": 8094,
      "Ġ37": 8095,
      "Ġorganizado": 8096,
      "ĠSecretario": 8097,
      "ĠAmerican": 8098,
      "Gran": 8099,
      "Ġpuesta": 8100,
      "ĠcaÃ±Ã³n": 8101,
      "ĠBlanca": 8102,
      "Ġfusion": 8103,
      "ĠgÃ³": 8104,
      "NU": 8105,
      "Ġat": 8106,
      "Ġsonora": 8107,
      "Ġtonel": 8108,
      "Ġmodernos": 8109,
      "ĠBÃ©lgica": 8110,
      "Å«": 8111,
      "tificado": 8112,
      "Ġavis": 8113,
      "Ġigualmente": 8114,
      "//": 8115,
      "tique": 8116,
      "Ġcron": 8117,
      "Ġajus": 8118,
      "ĠSw": 8119,
      "Ġropa": 8120,
      "Ġirreg": 8121,
      "egos": 8122,
      "cidentales": 8123,
      "67": 8124,
      "Ġza": 8125,
      "Ba": 8126,
      "ĠRad": 8127,
      "Ġgrabar": 8128,
      "Ġanima": 8129,
      "Ġviven": 8130,
      "peonatos": 8131,
      "ence": 8132,
      "pciones": 8133,
      "Ã¡z": 8134,
      "Ġparecer": 8135,
      "Ġregu": 8136,
      "ĠAlianza": 8137,
      "ĠemisiÃ³n": 8138,
      "Da": 8139,
      "aste": 8140,
      "Ġhistoriadores": 8141,
      "Ġprimaria": 8142,
      "NaciÃ³": 8143,
      "Ġflujo": 8144,
      "Ġindividuales": 8145,
      "trica": 8146,
      "Ġcristiana": 8147,
      "dista": 8148,
      "Ġhotel": 8149,
      "Ġline": 8150,
      "izados": 8151,
      "Ġ1910": 8152,
      "Ð¾": 8153,
      "Ġconferencia": 8154,
      "Ġfiscal": 8155,
      "Ġacceder": 8156,
      "Ġcandidatos": 8157,
      "Ġdefinitiva": 8158,
      "ĠtransiciÃ³n": 8159,
      "Ġapun": 8160,
      "Ġdesn": 8161,
      "ĠhectÃ¡": 8162,
      "Ġrap": 8163,
      "Ġempate": 8164,
      "quisiciÃ³n": 8165,
      "Ġarras": 8166,
      "tÃ³rico": 8167,
      "tologÃŃa": 8168,
      "tang": 8169,
      "ÃŃnas": 8170,
      "Ġestancia": 8171,
      "Ġmanus": 8172,
      "ĠsitÃºa": 8173,
      "Ġjuventud": 8174,
      "Ã©ndole": 8175,
      "Ġprotagonizada": 8176,
      "centa": 8177,
      "Ġnormas": 8178,
      "ĠMontevideo": 8179,
      "Ġsolitario": 8180,
      "Ġdisputar": 8181,
      "Ġhielo": 8182,
      "garo": 8183,
      "hor": 8184,
      "Ġquinta": 8185,
      "Ġcuentan": 8186,
      "Ġcasco": 8187,
      "Ġllevaba": 8188,
      "Ġubica": 8189,
      "ĠAsturi": 8190,
      "ĠtripulaciÃ³n": 8191,
      "Ġapell": 8192,
      "ĠdiÃ¡metro": 8193,
      "Ġmedieval": 8194,
      "Ġposeen": 8195,
      "Ġdesembar": 8196,
      "ars": 8197,
      "Ġciento": 8198,
      "ardi": 8199,
      "ĠfÃ³s": 8200,
      "ĠFab": 8201,
      "ĠbahÃŃa": 8202,
      "Ġtabl": 8203,
      "64": 8204,
      "Ġcincuenta": 8205,
      "Ġdestinado": 8206,
      "ĠanotÃ³": 8207,
      "ĠAla": 8208,
      "ĠrebeliÃ³n": 8209,
      "Ġoscuro": 8210,
      "Ġzar": 8211,
      "idez": 8212,
      "Ġdetener": 8213,
      "Ġcausas": 8214,
      "xo": 8215,
      "Ġtrataba": 8216,
      "Ġdemocr": 8217,
      "ĠgraduÃ³": 8218,
      "iri": 8219,
      "Ġdeportivo": 8220,
      "Ġ+": 8221,
      "Ġges": 8222,
      "Ġrelacionado": 8223,
      "Ġinvad": 8224,
      "Ġmonte": 8225,
      "ĠinversiÃ³n": 8226,
      "Ġsemifinales": 8227,
      "Ġbuenas": 8228,
      "ĠPÃºblica": 8229,
      "Ġmusulmanes": 8230,
      "ĠMargar": 8231,
      "ĠEscocia": 8232,
      "Ġobteniendo": 8233,
      "ĠInfan": 8234,
      "Ġpenal": 8235,
      "Ġdefine": 8236,
      "ĠCorpor": 8237,
      "Ġcaer": 8238,
      "Ġempezaron": 8239,
      "Ġcaballos": 8240,
      "arle": 8241,
      "ĠPÃºbl": 8242,
      "Ġturismo": 8243,
      "maciÃ³n": 8244,
      "Ġresolver": 8245,
      "ĠPam": 8246,
      "Ġpost": 8247,
      "âĢ¢": 8248,
      "tif": 8249,
      "ĠPresiden": 8250,
      "ĠTelevisiÃ³n": 8251,
      "ĠJefe": 8252,
      "ficio": 8253,
      "Ġenfoque": 8254,
      "Ġevolucion": 8255,
      "Ġdescrito": 8256,
      "ĠBir": 8257,
      "ult": 8258,
      "onduras": 8259,
      "ĠRegional": 8260,
      "tallÃ³n": 8261,
      "Ġhabilidad": 8262,
      "ĠTol": 8263,
      "ĠArch": 8264,
      "Ġcosech": 8265,
      "plic": 8266,
      "ridge": 8267,
      "Ġdescubierto": 8268,
      "dicas": 8269,
      "ĠliberaciÃ³n": 8270,
      "ĠhipÃ³tesis": 8271,
      "92": 8272,
      "clo": 8273,
      "hr": 8274,
      "ĠdescripciÃ³n": 8275,
      "ĠJan": 8276,
      "ĠOrganizaciÃ³n": 8277,
      "ally": 8278,
      "ĠvolcÃ¡n": 8279,
      "Ġaniversario": 8280,
      "ĠHaw": 8281,
      "Ġintrodujo": 8282,
      "Ġpira": 8283,
      "ĠOtro": 8284,
      "Ġfuese": 8285,
      "ĠCuerpo": 8286,
      "Ġcoro": 8287,
      "Ġimpar": 8288,
      "ĠmÃ©dicos": 8289,
      "tÃ¡neamente": 8290,
      "dum": 8291,
      "ĠLy": 8292,
      "Ġdirige": 8293,
      "Ġsupone": 8294,
      "ĠExterior": 8295,
      "ĠDen": 8296,
      "ĠGreen": 8297,
      "heim": 8298,
      "ĠEdward": 8299,
      "Ġurbana": 8300,
      "ĠsucediÃ³": 8301,
      "Ġcapaces": 8302,
      "Ġinfluencias": 8303,
      "Ġcontam": 8304,
      "Ġconcentr": 8305,
      "Ġnoticia": 8306,
      "Ġenamor": 8307,
      "ĠAtlÃ¡ntico": 8308,
      "Ġido": 8309,
      "Ġproductores": 8310,
      "vez": 8311,
      "Ġrecientes": 8312,
      "Ġtomando": 8313,
      "Ġcielo": 8314,
      "Ġerror": 8315,
      "ĠvendiÃ³": 8316,
      "Ġconcur": 8317,
      "Ġfib": 8318,
      "Ġic": 8319,
      "orro": 8320,
      "Ġclaramente": 8321,
      "ĠniÃ±a": 8322,
      "Ġrelo": 8323,
      "Ġ48": 8324,
      "ĠagrÃŃcola": 8325,
      "Ġelegir": 8326,
      "trico": 8327,
      "Ġentender": 8328,
      "Ġconsolid": 8329,
      "ĠAdam": 8330,
      "ÃŃz": 8331,
      "Ġprohi": 8332,
      "ĠÃ¡cido": 8333,
      "Ġbanco": 8334,
      "Ġligeramente": 8335,
      "Ġgole": 8336,
      "ĠSant": 8337,
      "Ġofrecer": 8338,
      "ĠFox": 8339,
      "rÃŃan": 8340,
      "vientes": 8341,
      "Ġformaron": 8342,
      "Ġpersegu": 8343,
      "Ġprimo": 8344,
      "Ġrecinto": 8345,
      "guno": 8346,
      "ĠScott": 8347,
      "hel": 8348,
      "Ġimpuestos": 8349,
      "Ġ120": 8350,
      "ĠHugo": 8351,
      "Ġeva": 8352,
      "Ġconfigu": 8353,
      "mej": 8354,
      "ãĥ": 8355,
      "ĠinaugurÃ³": 8356,
      "ĠCaribe": 8357,
      "ĠClas": 8358,
      "cier": 8359,
      "Ġinmediato": 8360,
      "Ġsaque": 8361,
      "ĠOtras": 8362,
      "Ġcandidatura": 8363,
      "Ġderri": 8364,
      "Ġrema": 8365,
      "ciado": 8366,
      "Ġrea": 8367,
      "ĠIra": 8368,
      "Ġpromover": 8369,
      "Ġinver": 8370,
      "EA": 8371,
      "Ġpide": 8372,
      "Ġsul": 8373,
      "tlÃ¡n": 8374,
      "Ġprolong": 8375,
      "Ġconfianza": 8376,
      "ĠJones": 8377,
      "ĠpatrÃ³n": 8378,
      "ĠrevelÃ³": 8379,
      "ĠSir": 8380,
      "ĠAward": 8381,
      "Ġcasti": 8382,
      "Ġcenten": 8383,
      "tarias": 8384,
      "Ġnoctur": 8385,
      "Ġ1925": 8386,
      "Ġjuz": 8387,
      "ĠraÃŃces": 8388,
      "ĠPolicÃŃa": 8389,
      "die": 8390,
      "urs": 8391,
      "ĠPers": 8392,
      "Ġestilos": 8393,
      "Ġdial": 8394,
      "Ġsecuencia": 8395,
      "Ġincapa": 8396,
      "Ġsuerte": 8397,
      "ĠDay": 8398,
      "Ġhipo": 8399,
      "Ġindu": 8400,
      "inter": 8401,
      "Ãºo": 8402,
      "Ġnegociaciones": 8403,
      "trÃ³leo": 8404,
      "Ġcompromiso": 8405,
      "Ya": 8406,
      "Ġsubmar": 8407,
      "Ġ1924": 8408,
      "ĠtÃŃo": 8409,
      "ĠParti": 8410,
      "ÃŃso": 8411,
      "gio": 8412,
      "ĠincorporÃ³": 8413,
      "ĠTru": 8414,
      "ĠtratÃ³": 8415,
      "Ġadicionales": 8416,
      "ĠcausÃ³": 8417,
      "Sal": 8418,
      "Ãºmenes": 8419,
      "Ġdecisiones": 8420,
      "Ġdivide": 8421,
      "adolid": 8422,
      "istÃŃan": 8423,
      "ĠDom": 8424,
      "roeste": 8425,
      "âĢ¦": 8426,
      "Ġestric": 8427,
      "Å¡": 8428,
      "ĠjurisdicciÃ³n": 8429,
      "Ġign": 8430,
      "ĠMarcos": 8431,
      "Ġinterpretar": 8432,
      "Ġdistritos": 8433,
      "Ġsatisfac": 8434,
      "Ġjudicial": 8435,
      "Ġdestruir": 8436,
      "72": 8437,
      "uge": 8438,
      "ĠcaballerÃŃa": 8439,
      "Ġrealizados": 8440,
      "ĠBolÃŃvar": 8441,
      "Ġrusa": 8442,
      "ĠAndre": 8443,
      "ices": 8444,
      "Ġespacial": 8445,
      "ilas": 8446,
      "ĠSie": 8447,
      "ĠlesiÃ³n": 8448,
      "Ġcaja": 8449,
      "Ġsuger": 8450,
      "fia": 8451,
      "Ġpostu": 8452,
      "ĠShow": 8453,
      "Ġmultitud": 8454,
      "Ġretro": 8455,
      "Ġejercicio": 8456,
      "Ġembara": 8457,
      "BS": 8458,
      "ĠLim": 8459,
      "Ġpuntu": 8460,
      "iti": 8461,
      "ĠNÃº": 8462,
      "Ġcanad": 8463,
      "Ġaquellas": 8464,
      "Ġboca": 8465,
      "Ġhecha": 8466,
      "ĠTecn": 8467,
      "ĠotoÃ±o": 8468,
      "ĠusÃ³": 8469,
      "62": 8470,
      "ĠtÃºn": 8471,
      "Ġpuedan": 8472,
      "Ġparticipado": 8473,
      "Ġparedes": 8474,
      "Ġaudio": 8475,
      "Ġtemporal": 8476,
      "ĠEjecu": 8477,
      "ĠHonduras": 8478,
      "mond": 8479,
      "Ġeliminar": 8480,
      "://": 8481,
      "79": 8482,
      "Ġtrama": 8483,
      "xi": 8484,
      "idro": 8485,
      "Ġjaponesa": 8486,
      "Ġdisminuy": 8487,
      "Ġescuch": 8488,
      "ĠmÃŃnimo": 8489,
      "ayo": 8490,
      "ĠJackson": 8491,
      "Ġpene": 8492,
      "Ġcanta": 8493,
      "olos": 8494,
      "Ġsureste": 8495,
      "ĠdesapariciÃ³n": 8496,
      "apia": 8497,
      "ablemente": 8498,
      "Ġrelie": 8499,
      "Ġdepende": 8500,
      "ectos": 8501,
      "ĠHernÃ¡ndez": 8502,
      "ĠdomÃ©s": 8503,
      "lig": 8504,
      "Ãģ": 8505,
      "iedades": 8506,
      "Ġtomado": 8507,
      "zco": 8508,
      "Ġvideojuegos": 8509,
      "try": 8510,
      "Ġ34": 8511,
      "Ġrobo": 8512,
      "ĠAv": 8513,
      "ĠreuniÃ³": 8514,
      "tizaciÃ³n": 8515,
      "Ġhabiendo": 8516,
      "ĠMejor": 8517,
      "ipi": 8518,
      "Ġconvirtieron": 8519,
      "Ġregionales": 8520,
      "tÃ©s": 8521,
      "ĠADN": 8522,
      "Ġvicepresidente": 8523,
      "Ġalas": 8524,
      "Ġarre": 8525,
      "Ġfemin": 8526,
      "ĠTop": 8527,
      "osla": 8528,
      "Ġ1922": 8529,
      "Ġlanzada": 8530,
      "ator": 8531,
      "cionada": 8532,
      "mm": 8533,
      "Ġamericano": 8534,
      "Ġcancel": 8535,
      "Ġobservar": 8536,
      "Ġ1000": 8537,
      "bara": 8538,
      "ĠreÃºn": 8539,
      "Ġvencer": 8540,
      "Ġpelo": 8541,
      "ĠVene": 8542,
      "Ġeclesi": 8543,
      "tory": 8544,
      "bral": 8545,
      "anÃ¡": 8546,
      "ormes": 8547,
      "Ġcementerio": 8548,
      "Ġdivisiones": 8549,
      "Ġactitud": 8550,
      "ĠWW": 8551,
      "ĠHungrÃŃa": 8552,
      "acen": 8553,
      "Ġamarillo": 8554,
      "core": 8555,
      "ĠSerie": 8556,
      "ĠhectÃ¡reas": 8557,
      "Ġtienda": 8558,
      "Ġprincesa": 8559,
      "ht": 8560,
      "%,": 8561,
      "Ġcircuito": 8562,
      "ĠinfanterÃŃa": 8563,
      "ĠcomÃºnmente": 8564,
      "greg": 8565,
      "ĠCatedral": 8566,
      "ĠRuiz": 8567,
      "Ġingleses": 8568,
      "Ġtarje": 8569,
      "Ġterremo": 8570,
      "ĠWilliams": 8571,
      "ĠestÃ©": 8572,
      "ĠJohan": 8573,
      "Ġsobres": 8574,
      "rende": 8575,
      "public": 8576,
      "58": 8577,
      "Son": 8578,
      "ebro": 8579,
      "Ġapoyar": 8580,
      "Ġgrabaciones": 8581,
      "%)": 8582,
      "ĠVirgin": 8583,
      "Sta": 8584,
      "ĠJerusal": 8585,
      "incl": 8586,
      "Ġformal": 8587,
      "ajara": 8588,
      "Ġ1927": 8589,
      "Ġsar": 8590,
      "Ġalternativa": 8591,
      "tainment": 8592,
      "gido": 8593,
      "ĠpeticiÃ³n": 8594,
      "Ġgratu": 8595,
      "Ġquince": 8596,
      "ĠÂ¿": 8597,
      "lados": 8598,
      "ĠDirecciÃ³n": 8599,
      "Ġaceptar": 8600,
      "Ġsugiere": 8601,
      "Ġpilotos": 8602,
      "Ġjer": 8603,
      "ĠvegetaciÃ³n": 8604,
      "Ġjornada": 8605,
      "Ġpresupuesto": 8606,
      "uelto": 8607,
      "NT": 8608,
      "ites": 8609,
      "Ġapariencia": 8610,
      "ĠencargÃ³": 8611,
      "Ġ000": 8612,
      "Ġfall": 8613,
      "Ġvoces": 8614,
      "Ã¡u": 8615,
      "ĠSocialista": 8616,
      "Ġrenuncia": 8617,
      "Ġ)": 8618,
      "ĠexistÃŃa": 8619,
      "Ġdelante": 8620,
      "ĠMiss": 8621,
      "ĠTimes": 8622,
      "ĠMont": 8623,
      "ĠFilip": 8624,
      "Ġara": 8625,
      "Ã¡mico": 8626,
      "ĠCin": 8627,
      "ernes": 8628,
      "Ġencarcel": 8629,
      "Ġcodi": 8630,
      "Ġcreando": 8631,
      "Ġcolonias": 8632,
      "pus": 8633,
      "ison": 8634,
      "Ġpreserv": 8635,
      "ĠTeresa": 8636,
      "ĠhÃºme": 8637,
      "ĠJunto": 8638,
      "Ã¡maras": 8639,
      "Ġsiguieron": 8640,
      "Ġexposiciones": 8641,
      "caban": 8642,
      "tnam": 8643,
      "ĠHitler": 8644,
      "alda": 8645,
      "Pre": 8646,
      "neos": 8647,
      "tÃ¡r": 8648,
      "Ġtransfer": 8649,
      "Ġteatral": 8650,
      "Ġgraves": 8651,
      "Ġreemplazado": 8652,
      "Ġfutbolista": 8653,
      "ĠingenierÃŃa": 8654,
      "mica": 8655,
      "Ġherramientas": 8656,
      "ificado": 8657,
      "Ġâ": 8658,
      "Ġclientes": 8659,
      "Ġrecuerda": 8660,
      "ĠpreparaciÃ³n": 8661,
      "Ġaltar": 8662,
      "Â¿": 8663,
      "Ġhin": 8664,
      "ĠHonor": 8665,
      "hire": 8666,
      "Ġempresario": 8667,
      "ĠMoreno": 8668,
      "ĠNational": 8669,
      "Ġces": 8670,
      "Ġperdiendo": 8671,
      "Ã³gico": 8672,
      "encio": 8673,
      "Ġnaciones": 8674,
      "alizadas": 8675,
      "Ġcita": 8676,
      "Ġfemenina": 8677,
      "Ġriqueza": 8678,
      "ĠClau": 8679,
      "Ġrese": 8680,
      "Ġvigil": 8681,
      "Ġfracaso": 8682,
      "urre": 8683,
      "Ġinterrump": 8684,
      "Ã±ado": 8685,
      "ualidad": 8686,
      "ild": 8687,
      "Ġsalas": 8688,
      "ĠBat": 8689,
      "Ġlis": 8690,
      "Ġcosto": 8691,
      "Ġinterpretado": 8692,
      "Ġhermanas": 8693,
      "ĠVÃŃctor": 8694,
      "Ġpredi": 8695,
      "amanca": 8696,
      "Ġrecol": 8697,
      "Ġobtenido": 8698,
      "Ġmencionado": 8699,
      "ĠsueÃ±o": 8700,
      "ser": 8701,
      "Ġlogrado": 8702,
      "ĠVIII": 8703,
      "ĠquÃŃmica": 8704,
      "Ġprevis": 8705,
      "Ġpistas": 8706,
      "bÃŃa": 8707,
      "ĠAri": 8708,
      "ĠÃ©tn": 8709,
      "Ġbater": 8710,
      "fÃ³nica": 8711,
      "cimo": 8712,
      "urales": 8713,
      "ĠautonomÃŃa": 8714,
      "Ġingreso": 8715,
      "ĠHollywood": 8716,
      "chester": 8717,
      "Ġidiomas": 8718,
      "Ġestablecieron": 8719,
      "trato": 8720,
      "ĠConfe": 8721,
      "Ð¸": 8722,
      "ĠCortes": 8723,
      "ĠSpi": 8724,
      "ĠbÃ³ve": 8725,
      "ĠmillÃ³n": 8726,
      "Ġarcos": 8727,
      "Ġclaus": 8728,
      "ĠAdri": 8729,
      "Ġvirus": 8730,
      "Ġ1926": 8731,
      "Ġcristal": 8732,
      "ĠAre": 8733,
      "Ġintens": 8734,
      "Ġfuertemente": 8735,
      "ĠEntonces": 8736,
      "Ġreconocida": 8737,
      "Ġestall": 8738,
      "Ġnegros": 8739,
      "ĠAutÃ³noma": 8740,
      "Ġsalvo": 8741,
      "Ġrin": 8742,
      "ĠWol": 8743,
      "ĠGeo": 8744,
      "CI": 8745,
      "Ġ1923": 8746,
      "Ġtoneladas": 8747,
      "Ġdesper": 8748,
      "yer": 8749,
      "ĠNoruega": 8750,
      "Ġcuarenta": 8751,
      "Ġcostumb": 8752,
      "100": 8753,
      "Ġteleno": 8754,
      "Ġsorpres": 8755,
      "Ġtomaron": 8756,
      "ĠprÃ³ximo": 8757,
      "69": 8758,
      "deste": 8759,
      "53": 8760,
      "ĠserÃ¡n": 8761,
      "Ġreparto": 8762,
      "Ġindividuo": 8763,
      "Ġvendido": 8764,
      "Ġintercambio": 8765,
      "ady": 8766,
      "imientos": 8767,
      "Ã³sitos": 8768,
      "ĠFord": 8769,
      "Ġhijas": 8770,
      "ĠocÃ©ano": 8771,
      "ueras": 8772,
      "Ġinmigrantes": 8773,
      "mÃ³": 8774,
      "Ġimpul": 8775,
      "ĠsatÃ©l": 8776,
      "ĠServicio": 8777,
      "Ġsupuso": 8778,
      "ĠVega": 8779,
      "ĠhabitaciÃ³n": 8780,
      "Ġpublica": 8781,
      "Ġexilio": 8782,
      "Ġrecibieron": 8783,
      "ĠIz": 8784,
      "Ġmejora": 8785,
      "Ġasentamiento": 8786,
      "ade": 8787,
      "Ġpaisaje": 8788,
      "dador": 8789,
      "Ġpena": 8790,
      "ĠcreciÃ³": 8791,
      "Ġpesos": 8792,
      "Ġretirarse": 8793,
      "than": 8794,
      "Ġpersecu": 8795,
      "cing": 8796,
      "ĠEP": 8797,
      "Ġdivor": 8798,
      "Ġcontinua": 8799,
      "onÃŃa": 8800,
      "Ġadelan": 8801,
      "Ġcerro": 8802,
      "Ġmecan": 8803,
      "Ġpertenecientes": 8804,
      "Ġempu": 8805,
      "Ġerig": 8806,
      "ĠReci": 8807,
      "Ġnaval": 8808,
      "Ġconfun": 8809,
      "ĠInternational": 8810,
      "ĠAsturias": 8811,
      "Ġheridos": 8812,
      "Ġperspectiva": 8813,
      "ĠComunista": 8814,
      "Ġarchivos": 8815,
      "Ġdibujos": 8816,
      "Ġterra": 8817,
      "Ġjaponeses": 8818,
      "ĠperiÃ³dicos": 8819,
      "ĠMir": 8820,
      "ĠasistiÃ³": 8821,
      "Ġsuble": 8822,
      "ĠTrin": 8823,
      "Ġsexto": 8824,
      "Ġsuspendi": 8825,
      "Ġnecesaria": 8826,
      "ĠZelanda": 8827,
      "Ġsoporte": 8828,
      "ĠJerusalÃ©n": 8829,
      "88": 8830,
      "esis": 8831,
      "ĠRon": 8832,
      "Ġrestantes": 8833,
      "Existen": 8834,
      "ÃŃv": 8835,
      "ĠprÃ©s": 8836,
      "teto": 8837,
      "Ġplaya": 8838,
      "ĠdaÃ±o": 8839,
      "Ġvisitantes": 8840,
      "Ã©u": 8841,
      "Ġclara": 8842,
      "tri": 8843,
      "Ġcostas": 8844,
      "bul": 8845,
      "mir": 8846,
      "Ġplas": 8847,
      "Ġmecanismo": 8848,
      "fono": 8849,
      "ĠBlanco": 8850,
      "ĠSpor": 8851,
      "Tra": 8852,
      "Ġrequis": 8853,
      "Ġasesor": 8854,
      "Ġgriega": 8855,
      "Ġnuclear": 8856,
      "Ġincremen": 8857,
      "Ġrutas": 8858,
      "donde": 8859,
      "Ġprocedentes": 8860,
      "Ġmental": 8861,
      "Ġresidentes": 8862,
      "nm": 8863,
      "Ġmurieron": 8864,
      "Ġdaba": 8865,
      "ĠStreet": 8866,
      "Ġitalianos": 8867,
      "Ġintr": 8868,
      "Ġrenunci": 8869,
      "Ġdemocracia": 8870,
      "ĠFlores": 8871,
      "Ġavenida": 8872,
      "ĠVasco": 8873,
      "Ġterritorial": 8874,
      "ĠSk": 8875,
      "Ã³so": 8876,
      "Ġcircunstancias": 8877,
      "Ġdispositivo": 8878,
      "Ġnotables": 8879,
      "ota": 8880,
      "rill": 8881,
      "Ġsituaciones": 8882,
      "traciones": 8883,
      "ĠfÃ³rmula": 8884,
      "Ġpoema": 8885,
      "ĠKim": 8886,
      "Ġmoda": 8887,
      "Ġfilas": 8888,
      "Ġflo": 8889,
      "Ġ1912": 8890,
      "Ġfrase": 8891,
      "Ġparal": 8892,
      "ĠFI": 8893,
      "Ġporcenta": 8894,
      "Ġelegida": 8895,
      "ĠAcu": 8896,
      "Ġcantidades": 8897,
      "umenta": 8898,
      "Ġdesaf": 8899,
      "Ġcontrovers": 8900,
      "ĠChamp": 8901,
      "74": 8902,
      "Ġtrenes": 8903,
      "Ġfren": 8904,
      "ĠmudÃ³": 8905,
      "ĠÃ¡rabes": 8906,
      "ĠcomentÃ³": 8907,
      "hum": 8908,
      "dows": 8909,
      "ĠNet": 8910,
      "Ġadicional": 8911,
      "boa": 8912,
      "Â¡": 8913,
      "Ġtecho": 8914,
      "inger": 8915,
      "uts": 8916,
      "ĠseÃ±ala": 8917,
      "Ġfirme": 8918,
      "Ġbiblio": 8919,
      "Ġsuroeste": 8920,
      "Ġcompuestos": 8921,
      "fel": 8922,
      "ĠLam": 8923,
      "ĠNie": 8924,
      "Ġpico": 8925,
      "Ġideal": 8926,
      "Ġtradiciones": 8927,
      "ĠWres": 8928,
      "ĠValladolid": 8929,
      "Ġasociado": 8930,
      "Ġcanto": 8931,
      "Ġrealizando": 8932,
      "Ġentidades": 8933,
      "Ġliteraria": 8934,
      "ĠTay": 8935,
      "ĠseÃ±alÃ³": 8936,
      "Ġcambia": 8937,
      "Ġcabe": 8938,
      "Ġ1921": 8939,
      "cito": 8940,
      "Ġtem": 8941,
      "ÃŃsimo": 8942,
      "ĠvolÃºmenes": 8943,
      "ĠProvincial": 8944,
      "Ġuniversal": 8945,
      "Ġrefuer": 8946,
      "Ġrelato": 8947,
      "Ġgrados": 8948,
      "ĠEp": 8949,
      "Ġnace": 8950,
      "Ġdispositivos": 8951,
      "yd": 8952,
      "Pe": 8953,
      "Ġconciencia": 8954,
      "Ġalcanza": 8955,
      "Ġaprendizaje": 8956,
      "jano": 8957,
      "Ġsuperar": 8958,
      "Ġobis": 8959,
      "Ġaer": 8960,
      "Ġmarcas": 8961,
      "ĠmarÃŃti": 8962,
      "Ġacero": 8963,
      "ĠMora": 8964,
      "ĠJunior": 8965,
      "Ġpeligros": 8966,
      "Ġpregunta": 8967,
      "ĠGuti": 8968,
      "Ġcaminos": 8969,
      "ĠOtra": 8970,
      "Ġequilibrio": 8971,
      "ĠMariano": 8972,
      "Ġmelo": 8973,
      "ĠpetrÃ³leo": 8974,
      "Ġcasado": 8975,
      "ĠSpe": 8976,
      "Ġcientos": 8977,
      "ĠEscri": 8978,
      "Ġinterme": 8979,
      "ĠmÃ¡quinas": 8980,
      "ĠUcran": 8981,
      "edores": 8982,
      "Ġtormenta": 8983,
      "ĠcafÃ©": 8984,
      "ken": 8985,
      "Ġincur": 8986,
      "ĠAlba": 8987,
      "Ġgla": 8988,
      "Ġlimita": 8989,
      "gran": 8990,
      "Ġcocina": 8991,
      "quete": 8992,
      "judi": 8993,
      "ĠespecÃŃficamente": 8994,
      "Ġtemprana": 8995,
      "hy": 8996,
      "96": 8997,
      "ctora": 8998,
      "idel": 8999,
      "ĠsesiÃ³n": 9000,
      "iosa": 9001,
      "Ġrevis": 9002,
      "Ġdejado": 9003,
      "Ġramas": 9004,
      "oni": 9005,
      "ĠfilÃ³so": 9006,
      "tizado": 9007,
      "distas": 9008,
      "ĠhÃ¡bita": 9009,
      "Ġmoneda": 9010,
      "dismo": 9011,
      "ipo": 9012,
      "Ġ1900": 9013,
      "Ġenca": 9014,
      "Ġasalto": 9015,
      "71": 9016,
      "Ġcoord": 9017,
      "cons": 9018,
      "Ġdescendientes": 9019,
      "gi": 9020,
      "ĠBig": 9021,
      "ĠmolÃ©": 9022,
      "guardia": 9023,
      "Ġlectura": 9024,
      "arÃ¡n": 9025,
      "Ġfrecuente": 9026,
      "Ã³crata": 9027,
      "ildo": 9028,
      "rich": 9029,
      "Ġproporciona": 9030,
      "ĠDec": 9031,
      "Ġseguro": 9032,
      "ĠhÃºn": 9033,
      "Ġcomuna": 9034,
      "Ġvisitar": 9035,
      "ĠDre": 9036,
      "idaciÃ³n": 9037,
      "Ġmaestros": 9038,
      "ĠantigÃ¼": 9039,
      "randa": 9040,
      "ĠCra": 9041,
      "ĠDerechos": 9042,
      "Ġocupado": 9043,
      "ĠPeÃ±a": 9044,
      "Ġesperanza": 9045,
      "Ġfirmado": 9046,
      "Finalmente": 9047,
      "unas": 9048,
      "ĠAR": 9049,
      "ĠOficina": 9050,
      "ĠdecoraciÃ³n": 9051,
      "vy": 9052,
      "Ġcompetir": 9053,
      "Ġconcej": 9054,
      "ĠtÃ¡c": 9055,
      "ĠMes": 9056,
      "erba": 9057,
      "Ġincendio": 9058,
      "mÃ¡s": 9059,
      "Ġasegurar": 9060,
      "ciles": 9061,
      "tÃ©rpre": 9062,
      "Ġcarbono": 9063,
      "cÃŃan": 9064,
      "Ġestando": 9065,
      "Ġprepara": 9066,
      "inte": 9067,
      "Ġprior": 9068,
      "chel": 9069,
      "Ġvolvieron": 9070,
      "ecreto": 9071,
      "Ġtumba": 9072,
      "vencia": 9073,
      "Ġpropietario": 9074,
      "ĠejÃ©rcitos": 9075,
      "Ġalrededores": 9076,
      "Posteriormente": 9077,
      "Ġempleado": 9078,
      "Ġconclu": 9079,
      "acos": 9080,
      "ĠPes": 9081,
      "Ġayuntamiento": 9082,
      "Ġdescubrir": 9083,
      "ĠFron": 9084,
      "iriÃ³": 9085,
      "mun": 9086,
      "Ġcog": 9087,
      "tÃ³bal": 9088,
      "Ġ600": 9089,
      "AM": 9090,
      "Ġsecciones": 9091,
      "Ġdecis": 9092,
      "Ġquedan": 9093,
      "Ġrebotes": 9094,
      "ust": 9095,
      "real": 9096,
      "olas": 9097,
      "thur": 9098,
      "Ã³nima": 9099,
      "ĠConde": 9100,
      "Ġescribe": 9101,
      "Ġpublicados": 9102,
      "Ġdependiendo": 9103,
      "opla": 9104,
      "Ġbeneficios": 9105,
      "ĠSolo": 9106,
      "ÃŃsima": 9107,
      "cipÃ³": 9108,
      "Ġarzobispo": 9109,
      "52": 9110,
      "ĠCÃ¡diz": 9111,
      "ĠTercera": 9112,
      "ĠImp": 9113,
      "ĠInvestigaciÃ³n": 9114,
      "entre": 9115,
      "ĠGib": 9116,
      "ĠFri": 9117,
      "ulsiÃ³n": 9118,
      "Ġapos": 9119,
      "ĠtransformaciÃ³n": 9120,
      "Ġdesas": 9121,
      "Ġespada": 9122,
      "Ġradical": 9123,
      "vila": 9124,
      "Ġvariedades": 9125,
      "Ġcostos": 9126,
      "ĠWood": 9127,
      "Ġchilena": 9128,
      "Ġgriegos": 9129,
      "diales": 9130,
      "Ġsierra": 9131,
      "Ġanar": 9132,
      "ĠpermitÃŃa": 9133,
      "ĠLucas": 9134,
      "vic": 9135,
      "Ġcif": 9136,
      "Ġaumenta": 9137,
      "Ġtorneos": 9138,
      "Ġconsecuencias": 9139,
      "Ġrasgos": 9140,
      "ĠproteÃŃnas": 9141,
      "Ġcompletar": 9142,
      "kins": 9143,
      "Ġtribus": 9144,
      "Ġimplica": 9145,
      "tea": 9146,
      "guar": 9147,
      "Ġdomingo": 9148,
      "Ġbaloncesto": 9149,
      "gena": 9150,
      "Ġacabar": 9151,
      "Ġfunda": 9152,
      "Ġhorm": 9153,
      "Ãī": 9154,
      "acciÃ³n": 9155,
      "Ġoportunidades": 9156,
      "ĠAlta": 9157,
      "Ġiban": 9158,
      "ĠDinamarca": 9159,
      "icana": 9160,
      "ĠOeste": 9161,
      "ĠGalicia": 9162,
      "Ġextraordin": 9163,
      "73": 9164,
      "bidas": 9165,
      "Ġcontienen": 9166,
      "Ġizquierdo": 9167,
      "Bu": 9168,
      "59": 9169,
      "Ġembajador": 9170,
      "Ġcober": 9171,
      "ĠSelecciÃ³n": 9172,
      "rones": 9173,
      "Ġleer": 9174,
      "Ġimposible": 9175,
      "zz": 9176,
      "bao": 9177,
      "Ġproducciones": 9178,
      "63": 9179,
      "ĠHuman": 9180,
      "ĠinstalÃ³": 9181,
      "Ġperci": 9182,
[...]
